<pad>	0
<s>	0
</s>	0
<unk>	0
en	-0
▁c	-1
es	-2
▁d	-3
ci	-4
▁p	-5
▁s	-6
er	-7
on	-8
la	-9
▁a	-10
re	-11
ta	-12
or	-13
ón	-14
▁de	-15
▁e	-16
ad	-17
in	-18
al	-19
▁t	-20
os	-21
ción	-22
ar	-23
un	-24
▁m	-25
ent	-26
▁l	-27
as	-28
qu	-29
▁con	-30
an	-31
▁n	-32
▁es	-33
▁la	-34
mp	-35
ro	-36
▁re	-37
▁f	-38
ec	-39
ic	-40
do	-41
▁qu	-42
▁en	-43
▁i	-44
te	-45
is	-46
ra	-47
▁el	-48
▁S	-49
ti	-50
to	-51
le	-52
▁in	-53
▁¿	-54
▁un	-55
▁que	-56
▁y	-57
▁o	-58
us	-59
▁b	-60
▁g	-61
▁→	-62
▁v	-63
ación	-64
de	-65
ri	-66
dad	-67
tu	-68
▁h	-69
ac	-70
▁r	-71
▁se	-72
lo	-73
cion	-74
ma	-75
▁(	-76
▁C	-77
ab	-78
▁des	-79
am	-80
▁pro	-81
mo	-82
▁co	-83
▁L	-84
▁D	-85
ig	-86
▁per	-87
▁imp	-88
▁al	-89
tr	-90
ie	-91
uc	-92
ente	-93
▁A	-94
da	-95
ul	-96
▁so	-97
▁ca	-98
tiv	-99
ali	-100
▁caus	-101
orta	-102
enci	-103
▁=	-104
▁Si	-105
ue	-106
si	-107
▁E	-108
fec	-109
co	-110
()	-111
cu	-112
ciones	-113
▁no	-114
ía	-115
▁por	-116
▁ti	-117
di	-118
▁lo	-119
vi	-120
▁M	-121
ada	-122
▁u	-123
▁par	-124
ca	-125
ado	-126
▁P	-127
ve	-128
▁una	-129
▁si	-130
lic	-131
▁ent	-132
▁importa	-133
ter	-134
▁'	-135
▁tr	-136
tan	-137
duc	-138
▁La	-139
bi	-140
▁su	-141
tos	-142
▁N	-143
aj	-144
ión	-145
▁comp	-146
▁ex	-147
po	-148
ando	-149
el	-150
▁causa	-151
ze	-152
ut	-153
▁res	-154
▁+	-155
tá	-156
▁R	-157
ce	-158
pa	-159
ene	-160
bre	-161
▁T	-162
end	-163
era	-164
ient	-165
▁or	-166
encia	-167
za	-168
▁te	-169
tuación	-170
▁pero	-171
Qu	-172
ist	-173
ena	-174
eri	-175
▁conf	-176
▁tran	-177
orm	-178
res	-179
sp	-180
ga	-181
me	-182
iento	-183
ol	-184
▁exp	-185
▁los	-186
li	-187
▁afec	-188
pe	-189
▁entre	-190
go	-191
tiva	-192
▁ac	-193
▁cre	-194
lación	-195
fic	-196
▁está	-197
ori	-198
encias	-199
enta	-200
mb	-201
den	-202
▁sab	-203
ay	-204
he	-205
cur	-206
fo	-207
cio	-208
▁son	-209
Qué	-210
▁tiene	-211
▁sabe	-212
lu	-213
▁fun	-214
▁dep	-215
▁cu	-216
adena	-217
▁desde	-218
se	-219
gu	-220
▁situación	-221
▁di	-222
▁I	-223
na	-224
▁inter	-225
ista	-226
duce	-227
▁po	-228
▁baj	-229
▁an	-230
mente	-231
ir	-232
▁to	-233
▁>	-234
und	-235
▁inv	-236
tes	-237
im	-238
▁fla	-239
▁reac	-240
▁F	-241
▁ro	-242
▁sobre	-243
ás	-244
ch	-245
▁pre	-246
ror	-247
il	-248
cia	-249
eces	-250
tas	-251
▁pa	-252
tar	-253
der	-254
▁del	-255
▁er	-256
▁gra	-257
ód	-258
ras	-259
ál	-260
▁En	-261
▁vi	-262
orma	-263
▁V	-264
▁me	-265
▁ocur	-266
▁mo	-267
ache	-268
▁este	-269
ini	-270
up	-271
tura	-272
▁trans	-273
iste	-274
▁soci	-275
fi	-276
ed	-277
las	-278
▁cons	-279
▁El	-280
▁ú	-281
ber	-282
▁j	-283
spec	-284
▁las	-285
▁dese	-286
ug	-287
ser	-288
▁B	-289
▁cla	-290
tt	-291
▁don	-292
sión	-293
▁para	-294
▁pri	-295
▁donde	-296
ciona	-297
▁Se	-298
▁mie	-299
endencias	-300
▁efec	-301
miento	-302
fer	-303
▁-	-304
tre	-305
▁baja	-306
man	-307
▁cont	-308
▁alta	-309
▁pue	-310
▁miedo	-311
Cache	-312
ambi	-313
▁≥	-314
▁tipo	-315
▁flaw	-316
alize	-317
ble	-318
gar	-319
▁le	-320
tivo	-321
con	-322
▁afecta	-323
cr	-324
▁ob	-325
▁ma	-326
ecesi	-327
ral	-328
▁op	-329
va	-330
igra	-331
pt	-332
dos	-333
vis	-334
▁obser	-335
▁inf	-336
▁qué	-337
▁x	-338
▁é	-339
▁No	-340
no	-341
alent	-342
licto	-343
icas	-344
be	-345
vier	-346
▁migra	-347
▁como	-348
lej	-349
▁G	-350
amente	-351
and	-352
▁{	-353
ing	-354
▁í	-355
▁ver	-356
alidad	-357
et	-358
ien	-359
lica	-360
ata	-361
mi	-362
dr	-363
gon	-364
▁ser	-365
▁An	-366
▁reg	-367
▁relación	-368
▁hu	-369
ina	-370
em	-371
▁aut	-372
ómo	-373
▁orden	-374
▁verdad	-375
▁funciones	-376
que	-377
tor	-378
lan	-379
qué	-380
▁á	-381
pi	-382
ues	-383
▁transf	-384
ll	-385
▁puede	-386
'.	-387
ica	-388
Cu	-389
▁fu	-390
▁cul	-391
edad	-392
undo	-393
▁pers	-394
▁da	-395
tream	-396
▁cambi	-397
▁cree	-398
▁dependencias	-399
▁U	-400
ces	-401
▁Sin	-402
án	-403
▁ocurri	-404
▁cada	-405
▁afectan	-406
▁ra	-407
ha	-408
mple	-409
cional	-410
▁has	-411
dades	-412
▁grafo	-413
▁observ	-414
én	-415
▁sin	-416
ari	-417
▁ar	-418
▁deseo	-419
como	-420
▁sociedad	-421
ani	-422
▁sor	-423
tagon	-424
tagonista	-425
cep	-426
alida	-427
uel	-428
los	-429
au	-430
ecu	-431
ún	-432
▁protagonista	-433
ico	-434
▁emo	-435
Cuál	-436
entes	-437
▁perspec	-438
▁revis	-439
▁Las	-440
▁So	-441
▁car	-442
▁cadena	-443
ru	-444
▁w	-445
▁resul	-446
▁NO	-447
lor	-448
ami	-449
▁pas	-450
osi	-451
▁person	-452
ni	-453
▁ó	-454
▁enfo	-455
▁enfoca	-456
és	-457
▁cal	-458
▁precio	-459
▁orig	-460
ducción	-461
▁dist	-462
▁causal	-463
▁Car	-464
istema	-465
ud	-466
ile	-467
▁int	-468
tam	-469
tric	-470
▁Mar	-471
ps	-472
▁solo	-473
alidate	-474
▁auth	-475
erialize	-476
les	-477
code	-478
▁romp	-479
▁reve	-480
▁lle	-481
▁mu	-482
ypt	-483
crypt	-484
▁Is	-485
tion	-486
ecesitan	-487
▁reacción	-488
▁revisión	-489
▁reacciona	-490
abel	-491
▁Isabel	-492
fía	-493
▁Sofía	-494
ack	-495
ns	-496
iego	-497
▁Diego	-498
able	-499
ON	-500
vo	-501
anie	-502
aniela	-503
▁Daniela	-504
).	-505
By	-506
enera	-507
▁temp	-508
ier	-509
om	-510
cape	-511
tex	-512
ortamiento	-513
per	-514
▁tan	-515
ver	-516
▁De	-517
eratura	-518
▁Dado	-519
▁produce	-520
Hay	-521
▁contro	-522
osec	-523
osecha	-524
▁datos	-525
▁tanto	-526
▁cuando	-527
gt	-528
▁error	-529
▁us	-530
ex	-531
manda	-532
zación	-533
ados	-534
ero	-535
▁contr	-536
ge	-537
▁pres	-538
▁ocurrido	-539
▁producción	-540
▁revela	-541
endi	-542
▁migración	-543
▁tra	-544
▁amb	-545
▁sistema	-546
▁entr	-547
▁conflicto	-548
bu	-549
▁temperatura	-550
▁deb	-551
▁cosecha	-552
▁Mód	-553
idad	-554
▁tema	-555
fica	-556
▁gro	-557
▁ab	-558
rec	-559
▁Con	-560
sa	-561
▁demanda	-562
Cómo	-563
ana	-564
▁sort	-565
CT	-566
▁deci	-567
CTO	-568
len	-569
men	-570
▁O	-571
▁reglas	-572
▁am	-573
igu	-574
ención	-575
..	-576
úb	-577
uci	-578
▁Des	-579
▁Situación	-580
endido	-581
▁<	-582
ery	-583
menta	-584
▁lla	-585
asc	-586
▁cor	-587
▁Los	-588
vent	-589
▁ha	-590
▁pobre	-591
Es	-592
sion	-593
rián	-594
▁hab	-595
igo	-596
▁hay	-597
cial	-598
▁imper	-599
▁reci	-600
ld	-601
rror	-602
▁hacia	-603
arra	-604
das	-605
▁poder	-606
▁resulta	-607
▁explor	-608
tra	-609
▁contex	-610
put	-611
Data	-612
ron	-613
io	-614
▁antes	-615
ura	-616
it	-617
▁vs	-618
▁priori	-619
▁imperfec	-620
▁tw	-621
▁as	-622
▁cent	-623
ren	-624
▁central	-625
▁twist	-626
▁alto	-627
id	-628
alta	-629
tive	-630
laim	-631
▁do	-632
▁nodos	-633
▁Claim	-634
baj	-635
lada	-636
pu	-637
▁via	-638
▁consecu	-639
▁consecuencias	-640
rb	-641
▁rompe	-642
▁alg	-643
usti	-644
erido	-645
▁requ	-646
alentendido	-647
▁afectado	-648
una	-649
paga	-650
▁propaga	-651
edro	-652
▁sa	-653
ora	-654
▁Ana	-655
eg	-656
▁def	-657
▁Pedro	-658
ern	-659
cri	-660
▁perspectiva	-661
▁posi	-662
ase	-663
▁he	-664
▁Carlos	-665
▁ten	-666
jo	-667
▁|	-668
ice	-669
por	-670
lab	-671
▁Fern	-672
▁Fernando	-673
▁Luci	-674
▁Luciana	-675
▁palab	-676
amiento	-677
iber	-678
ea	-679
ender	-680
ulos	-681
▁raz	-682
pro	-683
▁cargar	-684
ría	-685
▁≤	-686
iemp	-687
MP	-688
ull	-689
drés	-690
▁Andrés	-691
inal	-692
tural	-693
▁María	-694
▁porque	-695
▁k	-696
▁Ro	-697
▁confron	-698
amila	-699
▁Camila	-700
▁Valent	-701
▁Valentina	-702
ck	-703
▁mer	-704
▁sp	-705
berto	-706
tación	-707
▁Roberto	-708
dor	-709
aba	-710
▁transform	-711
▁efecto	-712
▁fuer	-713
ador	-714
andro	-715
▁Alej	-716
▁Alejandro	-717
ín	-718
▁direc	-719
LI	-720
▁RE	-721
▁Isabella	-722
aula	-723
▁Paula	-724
▁transi	-725
tm	-726
▁mis	-727
Ja	-728
▁Ja	-729
▁cl	-730
▁Javier	-731
▁sal	-732
▁Laura	-733
sible	-734
jado	-735
riel	-736
▁ambos	-737
tru	-738
▁ne	-739
▁Cadena	-740
▁malentendido	-741
▁Gab	-742
▁Gabriel	-743
pare	-744
so	-745
▁na	-746
int	-747
▁prof	-748
inación	-749
óg	-750
ante	-751
ix	-752
tricta	-753
▁estricta	-754
ace	-755
▁Mig	-756
▁Miguel	-757
low	-758
igni	-759
▁complej	-760
▁forma	-761
dio	-762
▁toda	-763
▁ante	-764
▁th	-765
mos	-766
via	-767
act	-768
▁contrad	-769
luvia	-770
ph	-771
dg	-772
▁ve	-773
vierte	-774
zando	-775
▁imperfecta	-776
▁Anali	-777
▁au	-778
lar	-779
▁norm	-780
▁hasta	-781
▁Cre	-782
ales	-783
▁patr	-784
▁clasi	-785
▁Qu	-786
ficada	-787
▁Query	-788
▁clave	-789
▁razon	-790
▁patrón	-791
▁palabras	-792
▁requerido	-793
▁clasificada	-794
▁razonamiento	-795
enc	-796
▁inver	-797
▁más	-798
arc	-799
▁implica	-800
▁prim	-801
▁narra	-802
▁justi	-803
▁justicia	-804
ío	-805
medad	-806
rs	-807
▁púb	-808
parece	-809
▁lluvia	-810
uelo	-811
mar	-812
lantas	-813
AX	-814
Error	-815
▁log	-816
ear	-817
▁at	-818
ña	-819
cuál	-820
cimiento	-821
▁Una	-822
▁bus	-823
▁busca	-824
▁cultura	-825
fy	-826
▁expres	-827
▁z	-828
▁Por	-829
▁parse	-830
relación	-831
▁fal	-832
▁entran	-833
pr	-834
ér	-835
ferencia	-836
ye	-837
▁lec	-838
▁están	-839
ne	-840
▁q	-841
▁Sí	-842
timi	-843
▁inform	-844
▁transforma	-845
▁dow	-846
▁downs	-847
▁downstream	-848
▁graph	-849
▁contexto	-850
MPA	-851
gi	-852
nd	-853
▁algún	-854
▁reduce	-855
▁Pro	-856
hé	-857
hi	-858
ho	-859
▁uno	-860
at	-861
▁confrontar	-862
▁flu	-863
▁get	-864
▁Amb	-865
▁bu	-866
▁seg	-867
▁Data	-868
▁flow	-869
▁difer	-870
▁null	-871
▁presión	-872
▁getData	-873
cul	-874
ipo	-875
ormenta	-876
▁segundo	-877
▁control	-878
▁render	-879
▁tam	-880
ecre	-881
ecreto	-882
spective	-883
icate	-884
enticate	-885
▁authenticate	-886
tual	-887
▁Res	-888
tesis	-889
▁fil	-890
▁filter	-891
▁perder	-892
cal	-893
▁validate	-894
tore	-895
DB	-896
bién	-897
▁también	-898
ierto	-899
▁restore	-900
meo	-901
▁bajo	-902
moi	-903
pag	-904
ficio	-905
▁read	-906
▁save	-907
▁saveDB	-908
gul	-909
▁readCache	-910
▁bund	-911
lit	-912
▁bundle	-913
anza	-914
ables	-915
ariables	-916
táf	-917
ortaciones	-918
▁serialize	-919
vidor	-920
táfora	-921
▁conex	-922
▁motiva	-923
▁realidad	-924
ulo	-925
▁arco	-926
▁bug	-927
▁hash	-928
irma	-929
▁narrativo	-930
gas	-931
rco	-932
▁inco	-933
▁decode	-934
spile	-935
▁transpile	-936
▁emociones	-937
log	-938
▁incomple	-939
est	-940
▁ben	-941
ire	-942
loy	-943
mark	-944
chmark	-945
▁benchmark	-946
enen	-947
▁entrantes	-948
▁deploy	-949
mail	-950
▁send	-951
icción	-952
Email	-953
▁sendEmail	-954
▁ah	-955
▁mini	-956
tec	-957
lg	-958
▁minify	-959
▁tormenta	-960
AP	-961
▁super	-962
▁format	-963
try	-964
▁seed	-965
um	-966
▁fet	-967
car	-968
▁interv	-969
file	-970
▁decrypt	-971
▁profile	-972
▁group	-973
▁groupBy	-974
▁retry	-975
ress	-976
llb	-977
API	-978
chAPI	-979
ducación	-980
▁fetchAPI	-981
▁memoi	-982
▁memoize	-983
▁compress	-984
tten	-985
llback	-986
▁personas	-987
▁rollback	-988
▁algo	-989
▁split	-990
▁flatten	-991
▁BF	-992
CI	-993
LU	-994
SO	-995
TU	-996
▁SE	-997
▁CL	-998
▁compile	-999
ttle	-1000
▁Su	-1001
od	-1002
▁lint	-1003
▁dos	-1004
▁thro	-1005
▁throttle	-1006
▁cód	-1007
gulo	-1008
▁cual	-1009
comp	-1010
acto	-1011
inci	-1012
▁teme	-1013
rite	-1014
ONF	-1015
▁BFS	-1016
▁Bug	-1017
▁Fix	-1018
▁clás	-1019
▁fear	-1020
▁actos	-1021
ÍM	-1022
ÓN	-1023
(),	-1024
TUP	-1025
CIÓN	-1026
SOLU	-1027
ÍMAX	-1028
LICTO	-1029
guras	-1030
siona	-1031
vapor	-1032
▁Arco	-1033
▁CONF	-1034
▁Conf	-1035
▁Debe	-1036
▁Desea	-1037
▁SETUP	-1038
▁Trián	-1039
▁firma	-1040
orsiona	-1041
▁CLÍMAX	-1042
▁Genera	-1043
▁Módulo	-1044
▁Propag	-1045
▁RESOLU	-1046
▁activa	-1047
▁código	-1048
▁desire	-1049
▁fuerza	-1050
rensible	-1051
▁Analiza	-1052
▁Seguras	-1053
▁cambias	-1054
▁clásico	-1055
▁impacto	-1056
▁tensión	-1057
▁Creencia	-1058
▁compleja	-1059
▁decisión	-1060
vaporación	-1061
▁CONFLICTO	-1062
▁Conflicto	-1063
▁Necesitan	-1064
▁Triángulo	-1065
▁necesitan	-1066
▁RESOLUCIÓN	-1067
▁Propagación	-1068
▁distorsiona	-1069
▁comprensible	-1070
▁motivacional	-1071
comportamiento	-1072
meout	-1073
▁write	-1074
▁writeCache	-1075
ibern	-1076
▁test	-1077
ibernación	-1078
ascada	-1079
bla	-1080
▁sani	-1081
quía	-1082
tize	-1083
▁hand	-1084
▁encrypt	-1085
▁sanitize	-1086
leError	-1087
▁handleError	-1088
úan	-1089
▁tiemp	-1090
▁tiempo	-1091
oun	-1092
dens	-1093
iebla	-1094
timize	-1095
▁optimize	-1096
▁plantas	-1097
densación	-1098
▁sus	-1099
actúan	-1100
▁encode	-1101
Event	-1102
▁logEvent	-1103
▁deserialize	-1104
▁inflación	-1105
ackup	-1106
▁backup	-1107
▁prob	-1108
▁sta	-1109
▁probable	-1110
▁invalidate	-1111
▁invalidateCache	-1112
pm	-1113
reve	-1114
▁social	-1115
▁escape	-1116
gs	-1117
ám	-1118
pre	-1119
osión	-1120
▁unes	-1121
pie	-1122
cesión	-1123
▁unescape	-1124
▁mú	-1125
JS	-1126
JSON	-1127
aché	-1128
▁humedad	-1129
ounce	-1130
▁debounce	-1131
▁normalize	-1132
▁map	-1133
nov	-1134
carga	-1135
▁parseJSON	-1136
pn	-1137
novación	-1138
inicio	-1139
fico	-1140
áfico	-1141
▁genera	-1142
▁confi	-1143
undación	-1144
gm	-1145
ers	-1146
▁men	-1147
rbani	-1148
rbanización	-1149
▁intención	-1150
▁sortBy	-1151
▁cri	-1152
orize	-1153
▁authorize	-1154
ical	-1155
▁merge	-1156
ves	-1157
▁com	-1158
undante	-1159
gn	-1160
lagas	-1161
mpleo	-1162
▁migrate	-1163
▁comportamiento	-1164
Val	-1165
Values	-1166
▁mapValues	-1167
▁suelo	-1168
▁li	-1169
▁fo	-1170
▁inversión	-1171
▁salud	-1172
▁hubi	-1173
▁habría	-1174
▁hubiera	-1175
gth	-1176
▁real	-1177
▁causalidad	-1178
▁Al	-1179
voca	-1180
▁provoca	-1181
tosín	-1182
length	-1183
tosíntesis	-1184
▁educación	-1185
▁crecimiento	-1186
ds	-1187
▁origina	-1188
tencia	-1189
▁timeout	-1190
▁evaporación	-1191
▁lleva	-1192
▁funciona	-1193
▁Te	-1194
▁crimen	-1195
taminación	-1196
▁niebla	-1197
▁resol	-1198
▁común	-1199
▁lector	-1200
▁hibernación	-1201
pc	-1202
▁propie	-1203
▁propiedades	-1204
▁conduce	-1205
▁Dep	-1206
▁sub	-1207
▁desenc	-1208
▁desencadena	-1209
ion	-1210
lictos	-1211
▁conflictos	-1212
▁desa	-1213
▁desaparece	-1214
dm	-1215
▁condensación	-1216
▁sequía	-1217
ribu	-1218
inización	-1219
▁signi	-1220
▁erosión	-1221
▁cambio	-1222
gr	-1223
dn	-1224
ién	-1225
▁calor	-1226
▁sobrecarga	-1227
gc	-1228
tir	-1229
▁sole	-1230
▁soledad	-1231
▁recesión	-1232
▁caché	-1233
▁experi	-1234
▁experimenta	-1235
cha	-1236
ino	-1237
▁exportaciones	-1238
▁contradicción	-1239
▁innovación	-1240
uo	-1241
▁reinicio	-1242
eses	-1243
▁inundación	-1244
▁urbanización	-1245
▁condi	-1246
▁tráfico	-1247
▁elem	-1248
▁viento	-1249
▁Emo	-1250
},	-1251
entos	-1252
▁elementos	-1253
▁fallo	-1254
▁todo	-1255
▁coinci	-1256
▁correlación	-1257
▁pobreza	-1258
▁pol	-1259
▁plagas	-1260
▁desempleo	-1261
dap	-1262
▁observador	-1263
▁helada	-1264
ts	-1265
),	-1266
▁latencia	-1267
▁secreto	-1268
▁ade	-1269
▁original	-1270
▁fotosíntesis	-1271
▁contaminación	-1272
▁información	-1273
▁importaciones	-1274
dc	-1275
▁muc	-1276
▁orgul	-1277
▁In	-1278
▁hace	-1279
▁esto	-1280
▁polinización	-1281
▁retor	-1282
tn	-1283
▁personaj	-1284
uelve	-1285
lante	-1286
▁adelante	-1287
...	-1288
gre	-1289
▁misma	-1290
▁Cada	-1291
▁referencia	-1292
rn	-1293
▁adap	-1294
▁adaptar	-1295
pl	-1296
data	-1297
▁ll	-1298
▁.	-1299
▁servidor	-1300
▁out	-1301
▁call	-1302
cono	-1303
inám	-1304
áli	-1305
didad	-1306
gl	-1307
dado	-1308
▁deben	-1309
▁cargarse	-1310
ara	-1311
amos	-1312
▁parcial	-1313
tc	-1314
▁output	-1315
ms	-1316
▁sc	-1317
zar	-1318
ise	-1319
)/	-1320
lot	-1321
asta	-1322
▁ún	-1323
▁base	-1324
▁mojado	-1325
▁directa	-1326
ución	-1327
tividad	-1328
▁pública	-1329
▁Agre	-1330
▁Agregar	-1331
mn	-1332
▁probablemente	-1333
En	-1334
esto	-1335
▁bre	-1336
dl	-1337
▁natural	-1338
polog	-1339
▁Tipo	-1340
cepción	-1341
▁brecha	-1342
▁Módulos	-1343
pological	-1344
▁percepción	-1345
▁Dependencias	-1346
▁cascada	-1347
ían	-1348
fa	-1349
▁rela	-1350
peo	-1351
th	-1352
▁ups	-1353
tup	-1354
▁plot	-1355
baja	-1356
iseña	-1357
ece	-1358
▁lóg	-1359
▁estas	-1360
tudio	-1361
ild	-1362
pres	-1363
rir	-1364
leno	-1365
ende	-1366
mc	-1367
entemente	-1368
▁lleno	-1369
▁ps	-1370
▁impar	-1371
▁stack	-1372
lti	-1373
reveal	-1374
ucr	-1375
▁aves	-1376
culus	-1377
iones	-1378
calculus	-1379
▁upstream	-1380
▁conexiones	-1381
▁intervención	-1382
▁abundante	-1383
▁hist	-1384
▁histori	-1385
IS	-1386
OR	-1387
▁Me	-1388
▁ahí	-1389
tl	-1390
▁econ	-1391
inen	-1392
▁asun	-1393
orld	-1394
▁fuente	-1395
▁Reg	-1396
▁daba	-1397
▁vive	-1398
▁mapeo	-1399
▁regla	-1400
▁senta	-1401
▁setup	-1402
):	-1403
▁W	-1404
IST	-1405
▁TW	-1406
omía	-1407
build	-1408
intas	-1409
tivas	-1410
▁IMPA	-1411
▁Tema	-1412
▁Mundo	-1413
▁TWIST	-1414
▁World	-1415
ceptual	-1416
istente	-1417
▁Diseña	-1418
▁Reglas	-1419
▁ground	-1420
▁únicas	-1421
building	-1422
▁IMPACTO	-1423
▁creando	-1424
▁definen	-1425
▁lógicas	-1426
▁restric	-1427
▁sentada	-1428
▁Metáfora	-1429
▁asunción	-1430
▁economía	-1431
▁efectivo	-1432
▁adaptaría	-1433
▁distintas	-1434
▁explorado	-1435
▁subvierte	-1436
▁conceptual	-1437
▁personajes	-1438
▁consistente	-1439
▁interactúan	-1440
▁priorizando	-1441
▁perspectivas	-1442
▁restricciones	-1443
▁mi	-1444
▁afectadas	-1445
utr	-1446
▁pr	-1447
▁primero	-1448
mr	-1449
cribe	-1450
pd	-1451
▁existe	-1452
▁fami	-1453
▁famili	-1454
▁llegar	-1455
▁form	-1456
▁sim	-1457
gd	-1458
oc	-1459
▁fue	-1460
▁posiciones	-1461
cub	-1462
ocu	-1463
▁mucho	-1464
▁vali	-1465
▁intereses	-1466
cubrir	-1467
▁neutr	-1468
▁neutral	-1469
▁Vio	-1470
teo	-1471
ur	-1472
▁pien	-1473
endo	-1474
▁piensa	-1475
tiene	-1476
▁elim	-1477
ja	-1478
acri	-1479
her	-1480
cl	-1481
adas	-1482
▁marc	-1483
ml	-1484
▁Per	-1485
tak	-1486
ocupa	-1487
olucr	-1488
taking	-1489
▁Norma	-1490
▁coher	-1491
namente	-1492
▁marcos	-1493
olucrados	-1494
▁Describe	-1495
▁preocupa	-1496
▁coherente	-1497
▁diferentes	-1498
▁incompleta	-1499
▁Perspective	-1500
▁prioridades	-1501
▁internamente	-1502
▁involucrados	-1503
▁preocupaciones	-1504
eo	-1505
tua	-1506
▁cr	-1507
▁ol	-1508
▁pi	-1509
▁Y	-1510
pg	-1511
ity	-1512
val	-1513
ños	-1514
undidad	-1515
▁profundidad	-1516
ancia	-1517
turas	-1518
ento	-1519
▁input	-1520
▁Marco	-1521
cs	-1522
▁is	-1523
▁id	-1524
▁trai	-1525
▁Ra	-1526
▁dis	-1527
▁pasos	-1528
▁transitiva	-1529
▁Ma	-1530
ros	-1531
fael	-1532
▁Rafael	-1533
▁gen	-1534
▁orgullo	-1535
▁Pab	-1536
▁Pablo	-1537
▁transitividad	-1538
▁variables	-1539
tad	-1540
blema	-1541
▁problema	-1542
▁Mateo	-1543
cn	-1544
▁transac	-1545
delo	-1546
mu	-1547
▁modelo	-1548
▁cierto	-1549
▁causar	-1550
▁dinám	-1551
▁Tom	-1552
▁reun	-1553
conoci	-1554
▁Tomás	-1555
▁desconoci	-1556
gg	-1557
▁reunión	-1558
preta	-1559
▁emocional	-1560
op	-1561
td	-1562
▁Luna	-1563
▁evi	-1564
truir	-1565
▁comb	-1566
▁menos	-1567
>),	-1568
igual	-1569
inada	-1570
▁(>),	-1571
▁desigual	-1572
▁combinada	-1573
▁desigualdades	-1574
▁tienen	-1575
▁Carmen	-1576
▁función	-1577
▁enm	-1578
▁Ad	-1579
bición	-1580
dida	-1581
bir	-1582
▁medi	-1583
érdida	-1584
ession	-1585
var	-1586
▁Elena	-1587
▁Adrián	-1588
pp	-1589
uestra	-1590
medi	-1591
ucía	-1592
iendo	-1593
▁Lucía	-1594
▁ch	-1595
▁enmasc	-1596
▁ali	-1597
entidad	-1598
▁ci	-1599
mm	-1600
▁resultado	-1601
▁desconocido	-1602
▁inhi	-1603
▁significa	-1604
eria	-1605
inter	-1606
teg	-1607
eza	-1608
▁naturaleza	-1609
▁Val	-1610
▁Valeria	-1611
onces	-1612
▁acce	-1613
▁opera	-1614
▁operaciones	-1615
▁dice	-1616
gru	-1617
contr	-1618
tante	-1619
▁constante	-1620
oso	-1621
▁llama	-1622
▁quien	-1623
▁escri	-1624
▁fre	-1625
▁acaba	-1626
▁Emoción	-1627
▁coincide	-1628
▁observado	-1629
)(	-1630
acrificio	-1631
▁frecu	-1632
▁necesi	-1633
▁Dem	-1634
▁Demuestra	-1635
RE	-1636
viv	-1637
▁observa	-1638
▁×	-1639
▁mód	-1640
▁emb	-1641
vivencia	-1642
▁supervivencia	-1643
▁compar	-1644
tg	-1645
argo	-1646
▁módulos	-1647
▁embargo	-1648
cas	-1649
ua	-1650
▁cómo	-1651
plic	-1652
cias	-1653
enas	-1654
▁noti	-1655
md	-1656
all	-1657
rus	-1658
▁aumenta	-1659
▁Es	-1660
▁buenas	-1661
▁noticias	-1662
▁condición	-1663
▁controlar	-1664
cla	-1665
▁pasado	-1666
vés	-1667
▁Estudio	-1668
▁congru	-1669
TH	-1670
ventos	-1671
▁eventos	-1672
clu	-1673
piado	-1674
propiado	-1675
▁confianza	-1676
▁sí	-1677
esa	-1678
oca	-1679
▁exploración	-1680
cidad	-1681
▁Violada	-1682
▁cultural	-1683
ls	-1684
▁llam	-1685
▁intenta	-1686
▁llamadas	-1687
AG	-1688
▁Or	-1689
▁To	-1690
▁río	-1691
▁ri	-1692
dd	-1693
pon	-1694
▁DAG	-1695
▁carga	-1696
▁Orden	-1697
▁Topological	-1698
iere	-1699
og	-1700
▁invoca	-1701
▁depende	-1702
vista	-1703
▁entrevista	-1704
tp	-1705
ln	-1706
▁raí	-1707
ultá	-1708
▁Call	-1709
ultáne	-1710
▁simultáne	-1711
oner	-1712
guien	-1713
cc	-1714
▁em	-1715
bajo	-1716
ivo	-1717
▁Co	-1718
át	-1719
▁encontr	-1720
oridad	-1721
▁formal	-1722
▁autoridad	-1723
ples	-1724
▁ir	-1725
▁múlti	-1726
▁múltiples	-1727
()?	-1728
unto	-1729
esta	-1730
leta	-1731
gp	-1732
pira	-1733
▁positivo	-1734
▁historial	-1735
▁completa	-1736
▁expresar	-1737
cre	-1738
ario	-1739
▁divis	-1740
▁quién	-1741
ui	-1742
des	-1743
▁config	-1744
▁alguien	-1745
ono	-1746
▁efectos	-1747
▁mol	-1748
▁directamente	-1749
▁descubrir	-1750
atch	-1751
pérdida	-1752
▁proteg	-1753
▁vida	-1754
▁bi	-1755
ét	-1756
▁inhibición	-1757
ken	-1758
nte	-1759
nt	-1760
▁lí	-1761
nec	-1762
▁claim	-1763
Po	-1764
ponse	-1765
mg	-1766
▁batch	-1767
▁ter	-1768
▁resolución	-1769
lr	-1770
erg	-1771
▁token	-1772
▁ocurre	-1773
ocur	-1774
aro	-1775
ocurre	-1776
▁ocurren	-1777
ams	-1778
ientras	-1779
▁ven	-1780
▁response	-1781
▁sarc	-1782
▁human	-1783
▁entonces	-1784
▁Resuelve	-1785
▁dijo	-1786
▁molesto	-1787
gun	-1788
aste	-1789
▁contraste	-1790
▁importante	-1791
ribución	-1792
▁session	-1793
▁Ambas	-1794
mor	-1795
nn	-1796
▁emoción	-1797
▁on	-1798
nection	-1799
ible	-1800
▁divisible	-1801
ody	-1802
oras	-1803
▁mem	-1804
▁Para	-1805
▁interpreta	-1806
▁gru	-1807
ergencia	-1808
▁final	-1809
aders	-1810
▁raíz	-1811
min	-1812
▁recibe	-1813
▁váli	-1814
▁if	-1815
▁perci	-1816
hema	-1817
▁ej	-1818
▁cache	-1819
▁serían	-1820
▁connection	-1821
ías	-1822
ft	-1823
▁body	-1824
▁gener	-1825
Por	-1826
▁headers	-1827
cuer	-1828
▁ejecu	-1829
▁recuer	-1830
▁gr	-1831
dp	-1832
oria	-1833
erData	-1834
▁schema	-1835
isten	-1836
load	-1837
▁memoria	-1838
▁os	-1839
▁stream	-1840
▁grupo	-1841
ffer	-1842
▁transaction	-1843
tions	-1844
▁pay	-1845
CD	-1846
▁userData	-1847
▁luc	-1848
▁llaman	-1849
▁influ	-1850
▁influencia	-1851
▁payload	-1852
mt	-1853
rsor	-1854
▁buffer	-1855
▁mediador	-1856
▁MCD	-1857
▁cursor	-1858
irar	-1859
▁options	-1860
▁Ambos	-1861
▁situa	-1862
▁params	-1863
▁dón	-1864
▁uc	-1865
▁path	-1866
▁mutu	-1867
▁pregun	-1868
ult	-1869
▁mutuamente	-1870
uu	-1871
▁conec	-1872
ss	-1873
▁dónde	-1874
ag	-1875
peto	-1876
▁crece	-1877
▁queue	-1878
▁vend	-1879
▁venden	-1880
cd	-1881
▁respeto	-1882
▁result	-1883
▁retorna	-1884
▁mismo	-1885
aje	-1886
ueve	-1887
▁contra	-1888
▁tem	-1889
▁neces	-1890
▁mar	-1891
ariamente	-1892
▁necesariamente	-1893
▁detec	-1894
▁ot	-1895
nr	-1896
▁explica	-1897
▁enf	-1898
▁H	-1899
lores	-1900
▁opues	-1901
dan	-1902
▁identidad	-1903
cg	-1904
▁query	-1905
▁ari	-1906
▁str	-1907
▁Resol	-1908
cm	-1909
▁cam	-1910
▁may	-1911
▁ambi	-1912
▁frecuentemente	-1913
▁relaciones	-1914
▁mayor	-1915
▁habla	-1916
▁chec	-1917
▁check	-1918
▁resolver	-1919
dt	-1920
▁repu	-1921
▁go	-1922
▁culturas	-1923
▁reputación	-1924
▁uni	-1925
cp	-1926
expres	-1927
ip	-1928
▁Inter	-1929
▁verdadera	-1930
▁Q	-1931
▁auto	-1932
▁ic	-1933
▁retorn	-1934
▁norma	-1935
▁árb	-1936
▁flujo	-1937
rr	-1938
▁árbol	-1939
().	-1940
▁nun	-1941
▁esta	-1942
▁Z	-1943
▁cie	-1944
▁aritm	-1945
éticas	-1946
▁string	-1947
▁aritméticas	-1948
▁univer	-1949
gin	-1950
ficar	-1951
du	-1952
▁enem	-1953
▁espa	-1954
▁enemigo	-1955
▁liber	-1956
▁libertad	-1957
▁camino	-1958
imp	-1959
▁Error	-1960
dir	-1961
▁nad	-1962
▁accede	-1963
lc	-1964
ares	-1965
▁atr	-1966
gia	-1967
lico	-1968
time	-1969
▁diferente	-1970
▁evita	-1971
▁X	-1972
enga	-1973
iso	-1974
ido	-1975
▁case	-1976
▁él	-1977
ño	-1978
engaño	-1979
▁sacrificio	-1980
▁ul	-1981
sn	-1982
▁leer	-1983
▁modi	-1984
▁siemp	-1985
▁siempre	-1986
▁modifica	-1987
▁correc	-1988
capa	-1989
ito	-1990
▁parcialmente	-1991
▁ins	-1992
ef	-1993
posi	-1994
▁confiar	-1995
capacidad	-1996
positiva	-1997
▁desierto	-1998
▁olvi	-1999
▁olvidado	-2000
alto	-2001
▁años	-2002
▁Cambi	-2003
ba	-2004
dra	-2005
▁ciega	-2006
altad	-2007
éd	-2008
▁ama	-2009
▁ta	-2010
▁cru	-2011
▁equ	-2012
lm	-2013
rom	-2014
De	-2015
▁ec	-2016
▁MU	-2017
GE	-2018
IO	-2019
SE	-2020
úa	-2021
▁nunca	-2022
▁índ	-2023
bió	-2024
pri	-2025
▁loop	-2026
▁índice	-2027
tada	-2028
icol	-2029
▁Ori	-2030
▁Ras	-2031
casar	-2032
vienen	-2033
▁atrás	-2034
ginados	-2035
racasar	-2036
treando	-2037
▁provienen	-2038
▁Originados	-2039
▁Rastreando	-2040
▁transformados	-2041
sr	-2042
▁muta	-2043
▁aband	-2044
▁COR	-2045
▁FOR	-2046
IOM	-2047
THY	-2048
▁AX	-2049
▁CORA	-2050
▁EMPA	-2051
▁MUSE	-2052
▁segu	-2053
▁AXIOM	-2054
▁FORGE	-2055
▁EMPATHY	-2056
▁dif	-2057
icológ	-2058
▁psicológ	-2059
▁entrada	-2060
▁mutación	-2061
▁Variables	-2062
▁nadie	-2063
shi	-2064
▁lu	-2065
▁revelar	-2066
▁mundo	-2067
lp	-2068
▁amena	-2069
shift	-2070
▁amenaza	-2071
perspective	-2072
ct	-2073
ignific	-2074
▁insignific	-2075
▁insignificancia	-2076
▁contradice	-2077
unre	-2078
ide	-2079
petir	-2080
▁errores	-2081
cionó	-2082
narra	-2083
liable	-2084
narrator	-2085
unreliable	-2086
▁traicionó	-2087
▁anim	-2088
ident	-2089
identity	-2090
▁crucial	-2091
ia	-2092
▁recur	-2093
propor	-2094
▁despropor	-2095
▁valios	-2096
cesivo	-2097
▁excesivo	-2098
▁ue	-2099
▁sobrevi	-2100
mesa	-2101
▁aver	-2102
truye	-2103
▁avergon	-2104
▁promesa	-2105
▁reciente	-2106
▁resuelve	-2107
▁inten	-2108
▁entero	-2109
ánto	-2110
romiso	-2111
▁compromiso	-2112
▁Contr	-2113
▁ce	-2114
▁blo	-2115
▁leg	-2116
▁detiene	-2117
▁alter	-2118
▁alterna	-2119
quea	-2120
▁bloquea	-2121
cer	-2122
yen	-2123
▁bene	-2124
▁mús	-2125
▁efectiva	-2126
+...	-2127
+...+	-2128
tac	-2129
ual	-2130
av	-2131
▁familia	-2132
can	-2133
▁ag	-2134
▁fuerte	-2135
▁...	-2136
hasta	-2137
media	-2138
dación	-2139
álidos	-2140
▁fluyen	-2141
▁contiene	-2142
▁inexpres	-2143
▁inválidos	-2144
▁intermedia	-2145
▁validación	-2146
▁inexpresable	-2147
lt	-2148
▁err	-2149
▁impide	-2150
púb	-2151
ismo	-2152
▁trabajo	-2153
oce	-2154
AD	-2155
aliz	-2156
feccion	-2157
alizante	-2158
feccionismo	-2159
▁paralizante	-2160
▁√	-2161
▁for	-2162
primos	-2163
▁mira	-2164
▁uso	-2165
▁legado	-2166
▁eter	-2167
▁aplic	-2168
▁veces	-2169
▁aplicada	-2170
▁fluye	-2171
▁CRE	-2172
▁REA	-2173
DAD	-2174
LIDAD	-2175
▁CREE	-2176
▁estado	-2177
▁primer	-2178
▁REALIDAD	-2179
▁eterno	-2180
ást	-2181
vir	-2182
}.	-2183
nc	-2184
ív	-2185
▁oj	-2186
▁sarcást	-2187
▁invierte	-2188
nm	-2189
ng	-2190
▁ru	-2191
▁cs	-2192
▁ls	-2193
▁ns	-2194
▁rs	-2195
▁ss	-2196
▁contó	-2197
▁conoce	-2198
▁quiere	-2199
▁tercer	-2200
▁incompleto	-2201
▁distribución	-2202
▁otr	-2203
▁dinámica	-2204
ff	-2205
▁tex	-2206
OK	-2207
by	-2208
▁ojos	-2209
▁ambas	-2210
óneo	-2211
▁Pero	-2212
▁erróneo	-2213
nl	-2214
▁ds	-2215
▁gs	-2216
▁ms	-2217
▁ts	-2218
lema	-2219
ao	-2220
▁dinámicas	-2221
trel	-2222
moral	-2223
▁rever	-2224
▁revés	-2225
▁reversible	-2226
▁vis	-2227
rar	-2228
canzar	-2229
trellas	-2230
▁estrellas	-2231
▁emergencia	-2232
ganza	-2233
éf	-2234
amb	-2235
tacto	-2236
▁inoc	-2237
▁visual	-2238
▁gana	-2239
▁llega	-2240
untos	-2241
▁inocentes	-2242
np	-2243
dic	-2244
ambigu	-2245
ambiguity	-2246
▁todos	-2247
ervar	-2248
▁vidas	-2249
unque	-2250
▁traza	-2251
ís	-2252
crep	-2253
tuali	-2254
▁pris	-2255
arada	-2256
▁discrep	-2257
▁pasando	-2258
▁enmascara	-2259
▁contextual	-2260
▁enmascarada	-2261
▁discrepancia	-2262
▁emocionalmente	-2263
▁ning	-2264
▁prisión	-2265
▁pu	-2266
▁tu	-2267
edr	-2268
istencia	-2269
▁ninguna	-2270
▁lento	-2271
▁Di	-2272
▁cir	-2273
ii	-2274
óm	-2275
▁traición	-2276
yo	-2277
íci	-2278
lio	-2279
▁otros	-2280
spirar	-2281
▁Diferencia	-2282
ED	-2283
▁lr	-2284
▁nr	-2285
▁rr	-2286
▁sr	-2287
▁ur	-2288
▁fi	-2289
▁apropiado	-2290
ria	-2291
▁verdadero	-2292
tran	-2293
vitar	-2294
▁dr	-2295
▁mr	-2296
íe	-2297
▁QED	-2298
almente	-2299
▁suspira	-2300
OS	-2301
▁Da	-2302
▁dado	-2303
▁acep	-2304
▁mez	-2305
▁mix	-2306
▁malas	-2307
▁coex	-2308
valente	-2309
▁mezcla	-2310
▁mixtas	-2311
▁pueden	-2312
▁generar	-2313
▁recibió	-2314
▁válidas	-2315
▁Emociones	-2316
▁coexisten	-2317
▁complejas	-2318
▁ambivalente	-2319
▁simultáneas	-2320
▁situaciones	-2321
▁rol	-2322
▁aceptar	-2323
▁mues	-2324
▁alb	-2325
▁constantemente	-2326
▁pis	-2327
oo	-2328
▁pun	-2329
ecto	-2330
tino	-2331
▁mon	-2332
Pode	-2333
berse	-2334
cluir	-2335
dencia	-2336
usoras	-2337
▁Datos	-2338
Podemos	-2339
▁deberse	-2340
▁inversa	-2341
▁concluir	-2342
▁muestran	-2343
▁confusoras	-2344
▁coincidencia	-2345
quit	-2346
quitecto	-2347
edrío	-2348
▁libre	-2349
▁destino	-2350
▁albedrío	-2351
hef	-2352
tista	-2353
▁edg	-2354
▁otro	-2355
yn	-2356
▁indic	-2357
ici	-2358
▁fav	-2359
▁controló	-2360
▁encontró	-2361
▁indicando	-2362
▁señ	-2363
▁recibir	-2364
▁señales	-2365
▁congruente	-2366
▁congruentes	-2367
▁pide	-2368
▁superfi	-2369
▁metáfora	-2370
▁favor	-2371
▁pin	-2372
ten	-2373
▁edi	-2374
mpli	-2375
▁cli	-2376
▁circu	-2377
ogada	-2378
▁depend	-2379
▁circular	-2380
▁dependencia	-2381
▁líder	-2382
▁normas	-2383
▁cue	-2384
mplifica	-2385
▁opuestas	-2386
nu	-2387
mite	-2388
▁isla	-2389
▁proteger	-2390
▁laz	-2391
▁lazos	-2392
▁familiares	-2393
▁luna	-2394
▁llena	-2395
▁coraje	-2396
▁aparece	-2397
mediario	-2398
▁transmite	-2399
▁Intermediario	-2400
ee	-2401
▁nada	-2402
igui	-2403
aa	-2404
▁bel	-2405
▁faro	-2406
▁medio	-2407
▁recon	-2408
ífica	-2409
▁Tra	-2410
▁arri	-2411
▁sigui	-2412
▁Sigu	-2413
▁Traza	-2414
▁Siguiendo	-2415
▁ejecución	-2416
▁siguiente	-2417
cado	-2418
▁conectar	-2419
▁entrevistador	-2420
minar	-2421
▁arriba	-2422
▁humana	-2423
▁conexión	-2424
ben	-2425
▁espu	-2426
ridad	-2427
▁seguridad	-2428
▁bib	-2429
▁lib	-2430
leza	-2431
▁belleza	-2432
▁mercado	-2433
▁recuerdos	-2434
▁imperfección	-2435
▁paso	-2436
▁Cor	-2437
▁espuria	-2438
▁causados	-2439
▁observada	-2440
▁Correlación	-2441
teca	-2442
tron	-2443
loto	-2444
auta	-2445
cen	-2446
tronauta	-2447
▁solos	-2448
lioteca	-2449
▁libros	-2450
▁escriben	-2451
▁biblioteca	-2452
▁construir	-2453
gan	-2454
ard	-2455
▁red	-2456
édico	-2457
▁toma	-2458
▁crear	-2459
loga	-2460
inó	-2461
▁ciu	-2462
ribuye	-2463
igos	-2464
▁ao	-2465
▁eo	-2466
▁io	-2467
▁oo	-2468
▁uo	-2469
▁explorar	-2470
▁inici	-2471
▁point	-2472
▁entry	-2473
▁falla	-2474
▁amigos	-2475
▁inició	-2476
▁originó	-2477
▁altru	-2478
▁altruista	-2479
blo	-2480
estra	-2481
▁cambiar	-2482
iu	-2483
▁nodo	-2484
▁pisos	-2485
▁reden	-2486
initos	-2487
▁edificio	-2488
▁infinitos	-2489
▁redención	-2490
▁relo	-2491
▁edges	-2492
▁Callers	-2493
▁directos	-2494
▁Analizando	-2495
▁día	-2496
▁enve	-2497
▁clima	-2498
jece	-2499
▁reloj	-2500
▁pueblo	-2501
▁difunto	-2502
▁controla	-2503
▁envejece	-2504
▁autoengaño	-2505
turo	-2506
enido	-2507
istales	-2508
▁llueve	-2509
▁contenido	-2510
▁cristales	-2511
▁monta	-2512
▁montaña	-2513
▁bos	-2514
▁cueva	-2515
▁futuro	-2516
▁pinturas	-2517
▁ES	-2518
▁ciudad	-2519
cad	-2520
IE	-2521
▁incapacidad	-2522
▁ment	-2523
▁neto	-2524
▁contrapositiva	-2525
▁aten	-2526
▁bosque	-2527
▁hablan	-2528
▁árboles	-2529
▁alcanzar	-2530
edir	-2531
▁defender	-2532
%)	-2533
%).	-2534
sidad	-2535
ucida	-2536
reduce	-2537
▁atenúa	-2538
▁elimina	-2539
▁reducida	-2540
▁presentes	-2541
▁intensidad	-2542
▁completamente	-2543
▁cho	-2544
cluy	-2545
▁claims	-2546
▁excluy	-2547
▁impedir	-2548
▁excluyentes	-2549
▁simultáneamente	-2550
▁lealtad	-2551
ae	-2552
valece	-2553
▁Porque	-2554
▁decimos	-2555
▁comparten	-2556
▁presencia	-2557
▁prevalece	-2558
▁tren	-2559
▁encontrar	-2560
iv	-2561
perder	-2562
▁necesidad	-2563
▁preservar	-2564
▁decla	-2565
ática	-2566
ración	-2567
▁Poner	-2568
▁choca	-2569
▁usando	-2570
▁temática	-2571
▁declaración	-2572
▁expresarías	-2573
▁SIE	-2574
MPRE	-2575
salidad	-2576
▁salvar	-2577
▁SIEMPRE	-2578
▁observó	-2579
▁observar	-2580
▁universalidad	-2581
bo	-2582
▁dol	-2583
ió	-2584
▁inac	-2585
▁susti	-2586
enir	-2587
pobre	-2588
▁Crea	-2589
tución	-2590
viendo	-2591
▁equipo	-2592
▁Sistema	-2593
▁Resolviendo	-2594
▁eliminación	-2595
▁sustitución	-2596
▁rá	-2597
ardín	-2598
▁flores	-2599
▁jardín	-2600
inf	-2601
▁enfr	-2602
▁escen	-2603
▁Fact	-2604
▁lucha	-2605
▁acción	-2606
▁públic	-2607
▁través	-2608
orizando	-2609
▁Mientras	-2610
▁enfrenta	-2611
▁inacción	-2612
▁mientras	-2613
▁escenario	-2614
▁expresado	-2615
▁intervenir	-2616
▁Factorizando	-2617
▁públicamente	-2618
▁evitar	-2619
▁Sea	-2620
▁fracasar	-2621
ór	-2622
onada	-2623
▁espacial	-2624
▁estación	-2625
▁abandonada	-2626
▁tener	-2627
▁inspirar	-2628
▁primo	-2629
▁rompiendo	-2630
▁Aplic	-2631
▁Aplicando	-2632
▁Simplifica	-2633
▁sola	-2634
▁repetir	-2635
▁mani	-2636
iclo	-2637
fiesta	-2638
▁Contrasta	-2639
▁expresión	-2640
▁manifiesta	-2641
▁cn	-2642
▁ho	-2643
▁ln	-2644
▁nn	-2645
▁rn	-2646
▁sn	-2647
par	-2648
tmo	-2649
▁Imp	-2650
osible	-2651
▁Ciclo	-2652
▁Imposible	-2653
▁detectada	-2654
▁topological	-2655
▁cel	-2656
▁vo	-2657
HS	-2658
▁nave	-2659
▁navegan	-2660
▁quienes	-2661
interactúan	-2662
▁dn	-2663
▁gn	-2664
▁mn	-2665
▁pn	-2666
▁tn	-2667
mpo	-2668
hó	-2669
ty	-2670
▁Como	-2671
inición	-2672
▁definición	-2673
ira	-2674
tie	-2675
enan	-2676
lf	-2677
▁✓	-2678
+(	-2679
▁sol	-2680
▁encad	-2681
ap	-2682
▁mod	-2683
▁protegen	-2684
▁encadenan	-2685
▁Sup	-2686
▁nos	-2687
uno	-2688
▁éx	-2689
eno	-2690
▁sobrevivir	-2691
▁perfeccionismo	-2692
▁pares	-2693
▁coprimos	-2694
▁querido	-2695
▁!	-2696
ores	-2697
úm	-2698
▁num	-2699
peri	-2700
▁vac	-2701
▁dolor	-2702
▁correcto	-2703
▁lé	-2704
▁sorpres	-2705
ep	-2706
▁basta	-2707
eli	-2708
▁éxito	-2709
▁requiere	-2710
▁humanidad	-2711
tal	-2712
▁vacío	-2713
tuar	-2714
ús	-2715
cómo	-2716
▁aliado	-2717
▁sorpr	-2718
▁sorprendido	-2719
▁días	-2720
tel	-2721
error	-2722
▁actuar	-2723
▁quedan	-2724
▁eno	-2725
▁historia	-2726
result	-2727
Cuánto	-2728
▁soldado	-2729
▁dup	-2730
ics	-2731
iod	-2732
cubre	-2733
▁mentira	-2734
íc	-2735
Ex	-2736
▁frus	-2737
trado	-2738
▁frustrado	-2739
▁luz	-2740
ai	-2741
▁lug	-2742
▁crea	-2743
zado	-2744
▁avergonzado	-2745
▁celoso	-2746
▁tec	-2747
one	-2748
truiría	-2749
▁destruiría	-2750
▁man	-2751
▁sig	-2752
ceso	-2753
▁oro	-2754
lep	-2755
ucli	-2756
▁veri	-2757
==	-2758
():	-2759
▁!==	-2760
Excep	-2761
ullPo	-2762
▁Falta	-2763
▁NullPo	-2764
▁acceso	-2765
▁acceder	-2766
▁retornó	-2767
Exception	-2768
▁verifica	-2769
▁NullPointer	-2770
gua	-2771
▁chef	-2772
▁pel	-2773
oritmo	-2774
▁Eucli	-2775
▁Euclides	-2776
▁algoritmo	-2777
▁mor	-2778
▁ansi	-2779
▁Ty	-2780
loso	-2781
▁artista	-2782
▁lee	-2783
viado	-2784
▁aliviado	-2785
▁pes	-2786
▁culp	-2787
plantas	-2788
▁ansioso	-2789
▁culpable	-2790
▁orgulloso	-2791
▁tel	-2792
liber	-2793
libertad	-2794
parse	-2795
▁arquitecto	-2796
▁apo	-2797
▁ín	-2798
▁triste	-2799
sacrificio	-2800
▁sue	-2801
tack	-2802
ei	-2803
eu	-2804
loat	-2805
psa	-2806
▁noc	-2807
▁feli	-2808
▁feliz	-2809
▁les	-2810
DE	-2811
Int	-2812
Float	-2813
▁Type	-2814
éricas	-2815
▁parseInt	-2816
parseFloat	-2817
▁TypeError	-2818
▁numéricas	-2819
▁retornado	-2820
lleno	-2821
▁enojado	-2822
trai	-2823
▁dud	-2824
iodista	-2825
▁periodista	-2826
▁era	-2827
tálg	-2828
quién	-2829
tálgico	-2830
▁nostálgico	-2831
▁músico	-2832
▁eleg	-2833
traición	-2834
▁abogada	-2835
entor	-2836
tiempo	-2837
▁inventor	-2838
▁omi	-2839
▁elegir	-2840
ven	-2841
▁dem	-2842
pública	-2843
pite	-2844
dilema	-2845
turn	-2846
ller	-2847
▁estu	-2848
ecur	-2849
eron	-2850
▁val	-2851
ib	-2852
ambición	-2853
uas	-2854
ault	-2855
▁thri	-2856
▁duelo	-2857
je	-2858
▁cg	-2859
▁dg	-2860
▁eg	-2861
▁gg	-2862
▁ig	-2863
▁lg	-2864
▁mg	-2865
▁ng	-2866
▁og	-2867
▁pg	-2868
▁rg	-2869
▁sg	-2870
▁tg	-2871
▁ug	-2872
drama	-2873
vieran	-2874
▁ahora	-2875
▁Cambia	-2876
▁repite	-2877
▁estudio	-2878
▁recuerdo	-2879
▁thriller	-2880
▁estuvieran	-2881
▁ocurriendo	-2882
▁ocurrieron	-2883
▁psicológico	-2884
▁over	-2885
▁mutua	-2886
DEP	-2887
curr	-2888
flow	-2889
líci	-2890
▁MAX	-2891
DEPTH	-2892
lícita	-2893
▁Recur	-2894
▁Stack	-2895
▁depth	-2896
▁parada	-2897
▁return	-2898
▁salida	-2899
▁default	-2900
▁overflow	-2901
▁Recursión	-2902
▁detective	-2903
▁explícita	-2904
▁usar	-2905
venganza	-2906
abundante	-2907
▁atóm	-2908
▁stale	-2909
cks	-2910
lock	-2911
▁Race	-2912
▁locks	-2913
▁mutex	-2914
▁valor	-2915
▁atómica	-2916
▁concurr	-2917
▁lectura	-2918
▁ejecutan	-2919
▁escribir	-2920
▁condition	-2921
▁transacción	-2922
▁raro	-2923
cascada	-2924
▁cm	-2925
▁dm	-2926
▁gm	-2927
▁im	-2928
▁lm	-2929
▁mm	-2930
▁nm	-2931
▁om	-2932
▁pm	-2933
▁rm	-2934
▁sm	-2935
▁tm	-2936
▁um	-2937
mps	-2938
▁metal	-2939
ning	-2940
ninguno	-2941
▁piloto	-2942
leg	-2943
▁cient	-2944
descubrir	-2945
▁científica	-2946
▁acel	-2947
nív	-2948
▁mal	-2949
aves	-2950
▁igu	-2951
▁intel	-2952
dam	-2953
igentes	-2954
nívoras	-2955
▁astronauta	-2956
▁carnívoras	-2957
▁inteligentes	-2958
jez	-2959
ciado	-2960
erada	-2961
▁enfer	-2962
▁vejez	-2963
licamos	-2964
identidad	-2965
▁descubre	-2966
▁acelerada	-2967
▁duplicamos	-2968
▁enfermedad	-2969
▁bió	-2970
▁dura	-2971
inamos	-2972
▁eliminamos	-2973
▁meses	-2974
▁iter	-2975
▁noche	-2976
▁necesita	-2977
▁Lo	-2978
een	-2979
▁dent	-2980
vedad	-2981
▁gravedad	-2982
zamos	-2983
▁forzamos	-2984
▁sonro	-2985
ajo	-2986
▁abajo	-2987
▁bióloga	-2988
▁sonroja	-2989
▁az	-2990
▁ges	-2991
necesi	-2992
efe	-2993
mojado	-2994
secreto	-2995
servidor	-2996
▁Off	-2997
▁últi	-2998
▁itera	-2999
▁lugar	-3000
▁magia	-3001
▁<=	-3002
▁cuesta	-3003
▁dentro	-3004
▁válido	-3005
▁último	-3006
▁Cambiar	-3007
tene	-3008
rc	-3009
rl	-3010
▁tecno	-3011
logía	-3012
▁tecnología	-3013
▁ap	-3014
▁cp	-3015
▁dp	-3016
▁ep	-3017
▁gp	-3018
▁ip	-3019
▁lp	-3020
▁mp	-3021
▁np	-3022
▁pp	-3023
▁rp	-3024
▁tp	-3025
▁up	-3026
▁jefe	-3027
icos	-3028
igro	-3029
▁lado	-3030
▁médico	-3031
cos	-3032
tenemos	-3033
▁mantenemos	-3034
sos	-3035
tió	-3036
asm	-3037
sw	-3038
rd	-3039
rg	-3040
▁Ah	-3041
▁luch	-3042
▁veía	-3043
▁sigue	-3044
▁todas	-3045
▁fís	-3046
▁viene	-3047
tección	-3048
▁peligro	-3049
▁Invierte	-3050
▁acciones	-3051
▁luchando	-3052
▁moralidad	-3053
▁protección	-3054
▁telep	-3055
áticos	-3056
▁animales	-3057
▁telepáticos	-3058
▁maestra	-3059
tidos	-3060
▁sueños	-3061
▁compartidos	-3062
rm	-3063
rp	-3064
rios	-3065
teri	-3066
▁homb	-3067
▁relaja	-3068
▁hombros	-3069
▁profundo	-3070
econ	-3071
enem	-3072
▁logros	-3073
▁recono	-3074
▁reconocimiento	-3075
dis	-3076
caso	-3077
▁debe	-3078
▁punto	-3079
]}.	-3080
char	-3081
derar	-3082
istas	-3083
▁vista	-3084
siderar	-3085
▁Pistas	-3086
▁omitió	-3087
▁relata	-3088
▁revelan	-3089
▁reconsiderar	-3090
▁idio	-3091
ivos	-3092
rojo	-3093
agres	-3094
▁azul	-3095
▁quema	-3096
▁enfría	-3097
▁pasivo	-3098
▁colores	-3099
▁comenta	-3100
▁físicas	-3101
agresivos	-3102
▁comentarios	-3103
etir	-3104
▁att	-3105
bajan	-3106
▁Recon	-3107
▁causó	-3108
tualiza	-3109
▁anteri	-3110
▁juntos	-3111
▁Recontex	-3112
▁trabajan	-3113
▁anteriores	-3114
▁Recontextualiza	-3115
ará	-3116
éfono	-3117
▁mueve	-3118
▁revisa	-3119
▁teléfono	-3120
yac	-3121
▁agua	-3122
▁voto	-3123
▁actor	-3124
▁alian	-3125
▁coali	-3126
zas	-3127
▁cc	-3128
▁lc	-3129
▁nc	-3130
▁oc	-3131
▁rc	-3132
oría	-3133
sivo	-3134
▁pie	-3135
swing	-3136
etirán	-3137
▁alían	-3138
▁apoyo	-3139
cionado	-3140
enemigo	-3141
▁Teoría	-3142
▁escaso	-3143
▁forman	-3144
▁recurso	-3145
▁alianzas	-3146
▁decisivo	-3147
▁recursos	-3148
▁valiosos	-3149
▁competirán	-3150
▁coaliciones	-3151
▁naturalmente	-3152
▁desproporcional	-3153
rt	-3154
Quién	-3155
inform	-3156
▁Dinám	-3157
▁cambia	-3158
▁idioma	-3159
▁valiosa	-3160
▁Dinámicas	-3161
información	-3162
▁generación	-3163
▁posicional	-3164
pido	-3165
▁dyn	-3166
▁ad	-3167
▁cd	-3168
▁dd	-3169
▁ed	-3170
▁gd	-3171
▁ld	-3172
▁md	-3173
▁nd	-3174
▁od	-3175
▁pd	-3176
▁rd	-3177
▁sd	-3178
▁td	-3179
▁ud	-3180
rust	-3181
▁ecli	-3182
▁rota	-3183
▁pesa	-3184
cale	-3185
ríe	-3186
▁pese	-3187
ñada	-3188
▁mos	-3189
amics	-3190
▁Ahora	-3191
▁Trust	-3192
▁dañada	-3193
▁dudará	-3194
▁rompió	-3195
▁rápido	-3196
▁eclipsa	-3197
▁destruye	-3198
▁dynamics	-3199
▁construye	-3200
▁abor	-3201
bido	-3202
ciales	-3203
▁escale	-3204
▁mediar	-3205
▁partes	-3206
▁subyac	-3207
▁abordan	-3208
▁percibido	-3209
▁preguntas	-3210
▁Resolución	-3211
▁subyacentes	-3212
▁superficiales	-3213
▁animad	-3214
▁animadamente	-3215
▁tér	-3216
▁dc	-3217
▁gc	-3218
▁mc	-3219
▁pc	-3220
▁tc	-3221
▁ruta	-3222
cuad	-3223
▁alin	-3224
▁Aunque	-3225
▁ocurra	-3226
▁conecta	-3227
▁alternativa	-3228
▁alternativo	-3229
▁Ape	-3230
▁conv	-3231
▁clara	-3232
▁estra	-3233
▁sient	-3234
encer	-3235
ficia	-3236
minos	-3237
tegia	-3238
▁Pers	-3239
▁Reen	-3240
uasión	-3241
▁queja	-3242
▁sería	-3243
cuadrar	-3244
▁Apelar	-3245
▁Evitar	-3246
▁active	-3247
procidad	-3248
▁alinear	-3249
▁imponer	-3250
▁sienten	-3251
▁resisten	-3252
▁términos	-3253
▁beneficia	-3254
▁beneficio	-3255
▁convencer	-3256
▁Persuasión	-3257
▁claramente	-3258
▁estrategia	-3259
▁Reencuadrar	-3260
▁psicológica	-3261
▁resistencia	-3262
▁reciprocidad	-3263
▁il	-3264
▁nl	-3265
▁rl	-3266
▁sl	-3267
▁Base	-3268
▁cier	-3269
adu	-3270
▁ae	-3271
▁ee	-3272
▁ie	-3273
▁oe	-3274
▁temas	-3275
culpa	-3276
▁ciertos	-3277
▁disculpa	-3278
▁frecuencia	-3279
iduo	-3280
▁∩	-3281
▁profes	-3282
lado	-3283
▁residuo	-3284
▁dl	-3285
▁gl	-3286
▁ml	-3287
▁pl	-3288
▁tl	-3289
dep	-3290
▁Solo	-3291
▁iguales	-3292
ure	-3293
▁callado	-3294
▁contacto	-3295
▁ge	-3296
▁pe	-3297
sc	-3298
asi	-3299
▁vin	-3300
vía	-3301
yec	-3302
uino	-3303
▁usa	-3304
▁tono	-3305
▁\	-3306
▁efi	-3307
▁aleg	-3308
▁bien	-3309
▁liter	-3310
rio	-3311
iguo	-3312
▁alegra	-3313
icamente	-3314
▁genuino	-3315
▁sarcasm	-3316
▁viniste	-3317
▁malinter	-3318
▁sarcástico	-3319
▁literalmente	-3320
▁malinterpreta	-3321
▁sarcásticamente	-3322
▁podr	-3323
▁sug	-3324
▁mens	-3325
idu	-3326
▁aa	-3327
▁ea	-3328
▁ia	-3329
▁oa	-3330
▁ua	-3331
istir	-3332
tando	-3333
▁text	-3334
ciente	-3335
▁envía	-3336
▁texto	-3337
▁podría	-3338
▁proyec	-3339
▁ambiguo	-3340
▁efectiv	-3341
▁existir	-3342
▁mensaje	-3343
pretación	-3344
▁correcta	-3345
▁eficiente	-3346
▁proyectando	-3347
▁efectivamente	-3348
▁interpretación	-3349
su	-3350
▁mala	-3351
▁pudo	-3352
▁espe	-3353
sl	-3354
▁Ti	-3355
struir	-3356
▁avis	-3357
▁tuvo	-3358
ental	-3359
▁avisar	-3360
▁explic	-3361
▁fundam	-3362
ribution	-3363
▁atribuye	-3364
emergencia	-3365
▁atribución	-3366
▁attribution	-3367
▁explicación	-3368
▁fundamental	-3369
▁situacional	-3370
▁ga	-3371
▁espejo	-3372
▁fac	-3373
hu	-3374
uso	-3375
sd	-3376
sg	-3377
▁asi	-3378
▁brus	-3379
▁gestos	-3380
▁bruscos	-3381
OD	-3382
▁paci	-3383
sm	-3384
▁Tiene	-3385
▁factor	-3386
▁piedra	-3387
inu	-3388
▁paciencia	-3389
étr	-3390
▁tar	-3391
st	-3392
▁sem	-3393
evi	-3394
dose	-3395
oral	-3396
espa	-3397
evita	-3398
▁gri	-3399
▁△	-3400
▁vie	-3401
étrica	-3402
▁simétrica	-3403
▁lex	-3404
▁léx	-3405
▁pali	-3406
▁refi	-3407
▁marco	-3408
▁solas	-3409
igü	-3410
rién	-3411
tanci	-3412
Necesi	-3413
espacio	-3414
igüedad	-3415
manente	-3416
▁léxica	-3417
Necesito	-3418
riéndose	-3419
▁espacio	-3420
▁lexical	-3421
▁palabra	-3422
▁distanci	-3423
▁temporal	-3424
▁terminar	-3425
▁necesitar	-3426
▁Ambigüedad	-3427
▁permanente	-3428
▁significar	-3429
▁refiriéndose	-3430
▁distanciamiento	-3431
orr	-3432
▁muy	-3433
▁TOD	-3434
▁Uni	-3435
▁⊆	-3436
,...	-3437
,...,	-3438
mento	-3439
verso	-3440
▁Veri	-3441
▁TODOS	-3442
▁Comple	-3443
▁Universo	-3444
▁universo	-3445
▁Verificar	-3446
▁Complemento	-3447
▁fr	-3448
▁pron	-3449
mpsesto	-3450
▁palimpsesto	-3451
esg	-3452
disc	-3453
mpar	-3454
tall	-3455
uede	-3456
▁amor	-3457
▁cita	-3458
trar	-3459
▁viejo	-3460
▁lími	-3461
▁self	-3462
▁ínti	-3463
▁gradu	-3464
birse	-3465
ieren	-3466
asiado	-3467
losure	-3468
talles	-3469
▁Puede	-3470
▁falta	-3471
mpartir	-3472
timidad	-3473
▁forzar	-3474
▁incomo	-3475
▁pronto	-3476
▁intento	-3477
▁límites	-3478
▁primera	-3479
▁íntimos	-3480
▁comparte	-3481
▁detalles	-3482
▁sugieren	-3483
disclosure	-3484
revelación	-3485
▁Compartir	-3486
▁demasiado	-3487
▁intimidad	-3488
▁percibirse	-3489
▁personales	-3490
▁gradualidad	-3491
▁incomodidad	-3492
▁Un	-3493
▁eu	-3494
▁iu	-3495
▁nu	-3496
▁ou	-3497
▁uu	-3498
▁fij	-3499
▁agres	-3500
▁gesto	-3501
▁mirar	-3502
cómodo	-3503
iduría	-3504
▁queri	-3505
ficados	-3506
▁siente	-3507
contacto	-3508
▁expresa	-3509
▁mostrar	-3510
▁percibe	-3511
▁agresión	-3512
▁incómodo	-3513
▁opuestos	-3514
▁fijamente	-3515
▁queriendo	-3516
▁sabiduría	-3517
▁Malentendido	-3518
▁significados	-3519
▁confrontación	-3520
▁fuego	-3521
úy	-3522
culo	-3523
til	-3524
óy	-3525
▁músculo	-3526
▁du	-3527
▁gu	-3528
éy	-3529
úv	-3530
áy	-3531
íy	-3532
hay	-3533
sav	-3534
▁∪	-3535
▁ger	-3536
▁Unión	-3537
uce	-3538
uego	-3539
▁ina	-3540
óv	-3541
MB	-3542
▁creatividad	-3543
ola	-3544
rea	-3545
▁ct	-3546
▁dt	-3547
▁et	-3548
▁gt	-3549
▁it	-3550
▁lt	-3551
▁mt	-3552
▁nt	-3553
▁pt	-3554
▁rt	-3555
▁st	-3556
▁tt	-3557
▁ut	-3558
aso	-3559
▁face	-3560
▁priv	-3561
▁tenga	-3562
év	-3563
pas	-3564
ñala	-3565
perior	-3566
saving	-3567
▁Indep	-3568
▁Viola	-3569
▁juego	-3570
▁razón	-3571
público	-3572
▁señala	-3573
▁privado	-3574
▁público	-3575
▁sociales	-3576
▁superior	-3577
▁Independi	-3578
▁avergonzar	-3579
áv	-3580
▁ai	-3581
▁ei	-3582
▁ii	-3583
▁ni	-3584
▁oi	-3585
▁ui	-3586
illa	-3587
err	-3588
sec	-3589
dia	-3590
lum	-3591
▁semilla	-3592
▁esper	-3593
▁esperanza	-3594
úf	-3595
metr	-3596
▁gi	-3597
▁sala	-3598
viene	-3599
▁previene	-3600
flej	-3601
fleja	-3602
▁quer	-3603
▁aunque	-3604
▁queramos	-3605
bor	-3606
▁somb	-3607
▁sombra	-3608
ób	-3609
óf	-3610
eti	-3611
▁AMB	-3612
▁Ina	-3613
aries	-3614
bound	-3615
▁conj	-3616
metría	-3617
▁AMBOS	-3618
▁viola	-3619
ionales	-3620
sección	-3621
▁cuánto	-3622
essional	-3623
▁directo	-3624
▁mayoría	-3625
▁salario	-3626
▁pregunta	-3627
boundaries	-3628
▁asimetría	-3629
▁conjuntos	-3630
▁preguntar	-3631
▁Inapropiado	-3632
▁entrevistas	-3633
▁Intersección	-3634
▁professional	-3635
▁profesionales	-3636
íb	-3637
íf	-3638
éb	-3639
úh	-3640
úá	-3641
exp	-3642
ong	-3643
cie	-3644
▁gota	-3645
bordado	-3646
▁desbordado	-3647
óh	-3648
óá	-3649
cepti	-3650
ceptible	-3651
▁persistencia	-3652
íh	-3653
íá	-3654
▁fle	-3655
▁var	-3656
éh	-3657
éá	-3658
has	-3659
leb	-3660
vy	-3661
ener	-3662
iger	-3663
unas	-3664
▁borr	-3665
pues	-3666
puestas	-3667
▁borradas	-3668
▁escritura	-3669
▁superpuestas	-3670
eral	-3671
ette	-3672
ou	-3673
▁minu	-3674
▁punc	-3675
▁puntu	-3676
▁tarde	-3677
xib	-3678
auto	-3679
petada	-3680
xibles	-3681
▁Gener	-3682
tuality	-3683
▁varían	-3684
▁minutos	-3685
▁informal	-3686
▁Respetada	-3687
▁contextos	-3688
▁flexibles	-3689
▁informales	-3690
▁punctuality	-3691
▁puntualidad	-3692
▁Generalmente	-3693
▁culturalmente	-3694
▁significativo	-3695
sal	-3696
▁riesg	-3697
etiqu	-3698
aliger	-3699
lebrar	-3700
▁grief	-3701
▁humor	-3702
▁chiste	-3703
▁cuenta	-3704
▁muchas	-3705
aligerar	-3706
▁Depende	-3707
▁algunas	-3708
▁funeral	-3709
etiquette	-3710
▁ambiente	-3711
▁celebrar	-3712
▁riesgoso	-3713
▁inapropiado	-3714
oe	-3715
autoengaño	-3716
temp	-3717
undas	-3718
▁profundas	-3719
▁sobrevive	-3720
▁tormentas	-3721
▁abre	-3722
▁enun	-3723
▁respira	-3724
oa	-3725
oi	-3726
incapacidad	-3727
ival	-3728
impar	-3729
ivale	-3730
▁Contra	-3731
▁equivale	-3732
▁enunciado	-3733
temperatura	-3734
▁Contrapositiva	-3735
idado	-3736
alienta	-3737
▁quemar	-3738
▁cuidado	-3739
úú	-3740
mie	-3741
▁sonríe	-3742
▁ambición	-3743
fia	-3744
lealtad	-3745
vv	-3746
necesidad	-3747
ot	-3748
▁atro	-3749
resa	-3750
Sol	-3751
Solución	-3752
▁dilema	-3753
▁venganza	-3754
áb	-3755
áf	-3756
ortal	-3757
▁arras	-3758
evitar	-3759
▁fortal	-3760
▁atrofia	-3761
▁regresa	-3762
▁abandono	-3763
▁arrastra	-3764
▁dirección	-3765
▁fortalece	-3766
fracasar	-3767
▁marea	-3768
▁menciona	-3769
íé	-3770
íó	-3771
íú	-3772
hy	-3773
demanda	-3774
▁incl	-3775
errada	-3776
repetir	-3777
▁incluso	-3778
▁germinar	-3779
▁persiste	-3780
▁enterrada	-3781
▁condiciones	-3782
▁pérdida	-3783
vb	-3784
vf	-3785
gullo	-3786
orgullo	-3787
producción	-3788
migra	-3789
migración	-3790
yy	-3791
óé	-3792
óú	-3793
truc	-3794
bar	-3795
áh	-3796
▁poca	-3797
▁fór	-3798
miedo	-3799
ipó	-3800
mula	-3801
▁ilum	-3802
▁cauce	-3803
tructivo	-3804
▁destructivo	-3805
▁iluminación	-3806
eros	-3807
▁núm	-3808
▁suma	-3809
▁LHS	-3810
▁RHS	-3811
▁✓.	-3812
▁Que	-3813
▁Hipó	-3814
▁Paso	-3815
▁Induc	-3816
▁Probar	-3817
▁Suponer	-3818
▁fórmula	-3819
▁Hipótesis	-3820
▁Inductivo	-3821
▁inducción	-3822
éé	-3823
)+(	-3824
don	-3825
▁Sean	-3826
impares	-3827
▁impares	-3828
▁números	-3829
▁así	-3830
▁irra	-3831
▁fes	-3832
vh	-3833
fb	-3834
perfeccionismo	-3835
▁Ent	-3836
ongamos	-3837
adicción	-3838
coprimos	-3839
▁Entonces	-3840
▁resultan	-3841
▁Supongamos	-3842
▁irracional	-3843
▁Contradicción	-3844
precio	-3845
óó	-3846
éú	-3847
áá	-3848
rump	-3849
▁col	-3850
▁odia	-3851
años	-3852
tejado	-3853
▁cumple	-3854
▁sorpresa	-3855
▁festejado	-3856
▁sorpresas	-3857
▁cumpleaños	-3858
cosecha	-3859
íd	-3860
íg	-3861
íu	-3862
rumpido	-3863
▁interrumpido	-3864
ran	-3865
▁personaje	-3866
▁ocul	-3867
▁cíc	-3868
▁indi	-3869
fh	-3870
íl	-3871
ím	-3872
íp	-3873
ír	-3874
hósp	-3875
ferente	-3876
hóspito	-3877
▁deseos	-3878
▁oculta	-3879
evitable	-3880
▁cíclico	-3881
▁superficie	-3882
▁indiferente	-3883
mbro	-3884
▁miembro	-3885
▁confronta	-3886
▁contribuye	-3887
▁sent	-3888
úé	-3889
yb	-3890
donar	-3891
▁encu	-3892
▁perdonar	-3893
▁será	-3894
▁compa	-3895
ícil	-3896
ñero	-3897
zarlo	-3898
▁recha	-3899
▁difícil	-3900
▁sabiendo	-3901
▁compañero	-3902
▁rechazarlo	-3903
▁heri	-3904
▁decir	-3905
ientos	-3906
▁sentim	-3907
▁heriría	-3908
▁sentimientos	-3909
fv	-3910
édi	-3911
hb	-3912
entran	-3913
pareja	-3914
▁fiesta	-3915
▁expareja	-3916
▁encuentran	-3917
▁inhibe	-3918
úó	-3919
diendo	-3920
▁prefer	-3921
▁decidiendo	-3922
▁preferencias	-3923
pios	-3924
íi	-3925
ít	-3926
▁vivir	-3927
▁merece	-3928
▁decidir	-3929
arres	-3930
édito	-3931
arresta	-3932
▁crédito	-3933
▁contrarresta	-3934
vá	-3935
▁frena	-3936
goci	-3937
▁princi	-3938
▁romper	-3939
▁adaptarse	-3940
▁principios	-3941
éó	-3942
úd	-3943
úg	-3944
úo	-3945
úu	-3946
▁parte	-3947
▁miente	-3948
▁negoci	-3949
▁intenciones	-3950
▁negociación	-3951
bb	-3952
fá	-3953
hab	-3954
tiga	-3955
▁renc	-3956
ég	-3957
éo	-3958
éu	-3959
úc	-3960
úe	-3961
úl	-3962
úp	-3963
úr	-3964
óo	-3965
ós	-3966
óu	-3967
▁cena	-3968
▁colec	-3969
▁sacri	-3970
yh	-3971
▁personal	-3972
▁colectivo	-3973
▁sacrificar	-3974
▁paz	-3975
▁rencor	-3976
▁mitiga	-3977
▁sale	-3978
encial	-3979
▁esencial	-3980
▁familiar	-3981
▁priorizar	-3982
habla	-3983
▁seguir	-3984
▁callar	-3985
éc	-3986
ée	-3987
él	-3988
ém	-3989
ép	-3990
óc	-3991
óe	-3992
ól	-3993
óp	-3994
yf	-3995
yv	-3996
▁reconstruir	-3997
hh	-3998
▁af	-3999
úi	-4000
út	-4001
yá	-4002
sol	-4003
raí	-4004
éa	-4005
éi	-4006
invent	-4007
inventor	-4008
óa	-4009
ói	-4010
ót	-4011
hf	-4012
hv	-4013
mús	-4014
músico	-4015
soldado	-4016
ád	-4017
ág	-4018
áo	-4019
áu	-4020
íí	-4021
pol	-4022
bf	-4023
bv	-4024
médico	-4025
cient	-4026
científica	-4027
arquitecto	-4028
▁ón	-4029
ác	-4030
áe	-4031
áp	-4032
ár	-4033
abogada	-4034
maestra	-4035
vd	-4036
vg	-4037
vn	-4038
vs	-4039
vu	-4040
artista	-4041
odista	-4042
periodista	-4043
astronauta	-4044
bh	-4045
bióloga	-4046
yd	-4047
yg	-4048
ys	-4049
yu	-4050
▁aso	-4051
vc	-4052
vl	-4053
vm	-4054
vp	-4055
vr	-4056
▁junto	-4057
▁tiende	-4058
▁ocurrir	-4059
piloto	-4060
fd	-4061
fg	-4062
fn	-4063
fs	-4064
fu	-4065
áa	-4066
ái	-4067
detec	-4068
detective	-4069
chef	-4070
yc	-4071
yl	-4072
ym	-4073
yp	-4074
yr	-4075
fc	-4076
fe	-4077
fl	-4078
fm	-4079
fp	-4080
fr	-4081
▁ás	-4082
▁vari	-4083
▁variable	-4084
▁ód	-4085
conec	-4086
conectar	-4087
hd	-4088
hg	-4089
hn	-4090
hs	-4091
vt	-4092
úí	-4093
bd	-4094
bg	-4095
bn	-4096
bs	-4097
lorar	-4098
revelar	-4099
explorar	-4100
ya	-4101
yi	-4102
yt	-4103
▁ál	-4104
expresar	-4105
hc	-4106
hl	-4107
hm	-4108
hp	-4109
hr	-4110
▁pasa	-4111
refleja	-4112
▁refleja	-4113
éí	-4114
bc	-4115
bl	-4116
bm	-4117
bp	-4118
br	-4119
teger	-4120
proteger	-4121
calor	-4122
imper	-4123
imperceptible	-4124
▁imperceptible	-4125
óí	-4126
lluvia	-4127
construir	-4128
rela	-4129
sequía	-4130
inflación	-4131
▁capas	-4132
capas	-4133
crear	-4134
educación	-4135
exportaciones	-4136
def	-4137
cambi	-4138
inver	-4139
cambiar	-4140
inversión	-4141
raíces	-4142
▁raíces	-4143
▁correla	-4144
crecimiento	-4145
▁correlaciona	-4146
flu	-4147
recesión	-4148
alcanzar	-4149
importaciones	-4150
viento	-4151
calienta	-4152
▁calienta	-4153
ht	-4154
contrar	-4155
encontrar	-4156
cin	-4157
salud	-4158
salvar	-4159
presión	-4160
tráfico	-4161
hibernación	-4162
tormenta	-4163
preservar	-4164
bt	-4165
condensación	-4166
defender	-4167
dese	-4168
fluye	-4169
▁asociado	-4170
fotosíntesis	-4171
fal	-4172
inundación	-4173
plagas	-4174
evaporación	-4175
necesita	-4176
desempleo	-4177
caché	-4178
reinicio	-4179
timeout	-4180
innovación	-4181
urbanización	-4182
▁útil	-4183
útil	-4184
crece	-4185
fallo	-4186
crimen	-4187
▁ía	-4188
humedad	-4189
polinización	-4190
inspirar	-4191
latencia	-4192
áé	-4193
áí	-4194
áó	-4195
áú	-4196
suelo	-4197
niebla	-4198
▁bn	-4199
▁fn	-4200
▁hn	-4201
▁vn	-4202
▁yn	-4203
▁án	-4204
▁én	-4205
contaminación	-4206
sus	-4207
helada	-4208
sobre	-4209
sobrecarga	-4210
▁bs	-4211
▁fs	-4212
▁hs	-4213
▁ys	-4214
▁és	-4215
▁ís	-4216
▁ós	-4217
▁ús	-4218
pobreza	-4219
inhóspito	-4220
inevitable	-4221
▁inhóspito	-4222
▁inevitable	-4223
erosión	-4224
son	-4225
▁bo	-4226
▁yo	-4227
▁áo	-4228
▁éo	-4229
▁ío	-4230
▁óo	-4231
▁úo	-4232
respira	-4233
hace	-4234
suspira	-4235
vé	-4236
ví	-4237
vó	-4238
vú	-4239
▁br	-4240
▁hr	-4241
▁vr	-4242
▁yr	-4243
▁ár	-4244
▁ér	-4245
▁ír	-4246
▁ór	-4247
▁úr	-4248
▁ay	-4249
▁by	-4250
▁cy	-4251
▁dy	-4252
▁ey	-4253
▁fy	-4254
▁gy	-4255
▁hy	-4256
▁iy	-4257
▁ly	-4258
▁my	-4259
▁ny	-4260
▁oy	-4261
▁py	-4262
▁ry	-4263
▁sy	-4264
▁ty	-4265
▁uy	-4266
▁vy	-4267
▁yy	-4268
▁áy	-4269
▁éy	-4270
▁íy	-4271
▁óy	-4272
▁úy	-4273
▁bg	-4274
▁fg	-4275
▁hg	-4276
▁vg	-4277
▁yg	-4278
▁ág	-4279
▁ég	-4280
▁íg	-4281
▁óg	-4282
▁úg	-4283
sonríe	-4284
fé	-4285
fí	-4286
fó	-4287
fú	-4288
menciona	-4289
▁bd	-4290
▁fd	-4291
▁hd	-4292
▁vd	-4293
▁yd	-4294
▁ád	-4295
▁éd	-4296
▁íd	-4297
▁úd	-4298
▁bb	-4299
▁cb	-4300
▁db	-4301
▁eb	-4302
▁fb	-4303
▁gb	-4304
▁hb	-4305
▁ib	-4306
▁lb	-4307
▁mb	-4308
▁nb	-4309
▁pb	-4310
▁rb	-4311
▁sb	-4312
▁tb	-4313
▁ub	-4314
▁vb	-4315
▁yb	-4316
▁áb	-4317
▁éb	-4318
▁íb	-4319
▁ób	-4320
▁úb	-4321
abre	-4322
está	-4323
▁bc	-4324
▁bl	-4325
▁fc	-4326
▁fl	-4327
▁hc	-4328
▁hl	-4329
▁vc	-4330
▁vl	-4331
▁yc	-4332
▁yl	-4333
▁ác	-4334
▁éc	-4335
▁íc	-4336
▁íl	-4337
▁óc	-4338
▁ól	-4339
▁úc	-4340
▁úl	-4341
▁bm	-4342
▁fm	-4343
▁hm	-4344
▁vm	-4345
▁ym	-4346
▁ám	-4347
▁ém	-4348
▁ím	-4349
▁óm	-4350
▁úm	-4351
solo	-4352
▁bf	-4353
▁cf	-4354
▁df	-4355
▁ef	-4356
▁ff	-4357
▁gf	-4358
▁hf	-4359
▁lf	-4360
▁mf	-4361
▁nf	-4362
▁of	-4363
▁pf	-4364
▁rf	-4365
▁sf	-4366
▁tf	-4367
▁uf	-4368
▁vf	-4369
▁yf	-4370
▁áf	-4371
▁éf	-4372
▁íf	-4373
▁óf	-4374
▁úf	-4375
▁bp	-4376
▁fp	-4377
▁hp	-4378
▁vp	-4379
▁yp	-4380
▁áp	-4381
▁ép	-4382
▁íp	-4383
▁óp	-4384
▁úp	-4385
yé	-4386
yí	-4387
yó	-4388
yú	-4389
▁be	-4390
▁fe	-4391
▁ye	-4392
▁áe	-4393
▁ée	-4394
▁íe	-4395
▁óe	-4396
▁úe	-4397
há	-4398
hí	-4399
hú	-4400
▁vu	-4401
▁yu	-4402
▁áu	-4403
▁éu	-4404
▁íu	-4405
▁óu	-4406
▁úu	-4407
▁divisores	-4408
▁aá	-4409
▁bá	-4410
▁cá	-4411
▁dá	-4412
▁eá	-4413
▁fá	-4414
▁gá	-4415
▁há	-4416
▁iá	-4417
▁lá	-4418
▁má	-4419
▁ná	-4420
▁oá	-4421
▁pá	-4422
▁sá	-4423
▁tá	-4424
▁uá	-4425
▁vá	-4426
▁yá	-4427
▁áá	-4428
▁éá	-4429
▁íá	-4430
▁óá	-4431
▁úá	-4432
▁av	-4433
▁bv	-4434
▁cv	-4435
▁dv	-4436
▁ev	-4437
▁fv	-4438
▁gv	-4439
▁hv	-4440
▁iv	-4441
▁lv	-4442
▁mv	-4443
▁nv	-4444
▁ov	-4445
▁pv	-4446
▁rv	-4447
▁sv	-4448
▁tv	-4449
▁uv	-4450
▁vv	-4451
▁yv	-4452
▁áv	-4453
▁év	-4454
▁ív	-4455
▁óv	-4456
▁úv	-4457
▁bh	-4458
▁dh	-4459
▁eh	-4460
▁fh	-4461
▁gh	-4462
▁hh	-4463
▁ih	-4464
▁lh	-4465
▁mh	-4466
▁nh	-4467
▁oh	-4468
▁ph	-4469
▁rh	-4470
▁sh	-4471
▁uh	-4472
▁vh	-4473
▁yh	-4474
▁áh	-4475
▁éh	-4476
▁íh	-4477
▁óh	-4478
▁úh	-4479
emple	-4480
empleado	-4481
▁pare	-4482
▁aú	-4483
▁bú	-4484
▁cú	-4485
▁dú	-4486
▁eú	-4487
▁fú	-4488
▁gú	-4489
▁hú	-4490
▁iú	-4491
▁lú	-4492
▁nú	-4493
▁oú	-4494
▁pú	-4495
▁rú	-4496
▁sú	-4497
▁tú	-4498
▁uú	-4499
▁vú	-4500
▁yú	-4501
▁áú	-4502
▁éú	-4503
▁íú	-4504
▁óú	-4505
▁úú	-4506
gido	-4507
▁pareja	-4508
bá	-4509
bé	-4510
bí	-4511
bó	-4512
bú	-4513
▁aé	-4514
▁bé	-4515
▁cé	-4516
▁dé	-4517
▁eé	-4518
▁fé	-4519
▁gé	-4520
▁hé	-4521
▁ié	-4522
▁mé	-4523
▁né	-4524
▁oé	-4525
▁pé	-4526
▁ré	-4527
▁sé	-4528
▁té	-4529
▁ué	-4530
▁vé	-4531
▁yé	-4532
▁áé	-4533
▁éé	-4534
▁íé	-4535
▁óé	-4536
▁úé	-4537
▁ba	-4538
▁fa	-4539
▁va	-4540
▁ya	-4541
▁áa	-4542
▁éa	-4543
▁óa	-4544
▁úa	-4545
prote	-4546
▁mentor	-4547
protegido	-4548
▁aó	-4549
▁bó	-4550
▁có	-4551
▁dó	-4552
▁eó	-4553
▁fó	-4554
▁gó	-4555
▁hó	-4556
▁ió	-4557
▁ló	-4558
▁mó	-4559
▁nó	-4560
▁oó	-4561
▁pó	-4562
▁ró	-4563
▁só	-4564
▁tó	-4565
▁uó	-4566
▁vó	-4567
▁yó	-4568
▁áó	-4569
▁éó	-4570
▁íó	-4571
▁óó	-4572
▁úó	-4573
▁aí	-4574
▁bí	-4575
▁cí	-4576
▁dí	-4577
▁eí	-4578
▁fí	-4579
▁gí	-4580
▁hí	-4581
▁ií	-4582
▁mí	-4583
▁ní	-4584
▁oí	-4585
▁pí	-4586
▁rí	-4587
▁tí	-4588
▁uí	-4589
▁ví	-4590
▁yí	-4591
▁áí	-4592
▁éí	-4593
▁íí	-4594
▁óí	-4595
▁úí	-4596
▁describe	-4597
cula	-4598
▁bt	-4599
▁ft	-4600
▁ht	-4601
▁vt	-4602
▁yt	-4603
▁át	-4604
▁ét	-4605
▁ít	-4606
▁ót	-4607
▁út	-4608
▁simplifica	-4609
▁hi	-4610
▁yi	-4611
▁ái	-4612
▁éi	-4613
▁íi	-4614
▁ói	-4615
▁úi	-4616
cuáles	-4617
▁motivaciones	-4618
▁calcula	-4619
alum	-4620
▁quito	-4621
cinos	-4622
▁diseña	-4623
▁vecinos	-4624
▁desconocidos	-4625
▁riv	-4626
▁rivales	-4627
▁ellos	-4628
▁her	-4629
alumno	-4630
▁profesor	-4631
▁anali	-4632
▁analiza	-4633
▁demuestra	-4634
▁afirma	-4635
▁afirmaciones	-4636
▁estos	-4637
manos	-4638
▁hermanos	-4639
▁lógica	-4640
▁cole	-4641
tuc	-4642
tud	-4643
tue	-4644
tug	-4645
tui	-4646
tul	-4647
tum	-4648
tuo	-4649
tur	-4650
tut	-4651
tuu	-4652
maa	-4653
mae	-4654
mag	-4655
mai	-4656
mam	-4657
mao	-4658
map	-4659
mat	-4660
mau	-4661
▁aus	-4662
▁cus	-4663
▁dus	-4664
▁eus	-4665
▁gus	-4666
▁ius	-4667
▁lus	-4668
▁mus	-4669
▁nus	-4670
▁ous	-4671
▁pus	-4672
▁rus	-4673
▁tus	-4674
▁uus	-4675
▁trama	-4676
▁colegas	-4677
mpa	-4678
mpc	-4679
mpd	-4680
mpe	-4681
mpg	-4682
mpi	-4683
mpl	-4684
mpm	-4685
mpn	-4686
mpp	-4687
mpr	-4688
mpt	-4689
mpu	-4690
▁aon	-4691
▁eon	-4692
▁gon	-4693
▁ion	-4694
▁lon	-4695
▁non	-4696
▁oon	-4697
▁pon	-4698
▁ron	-4699
▁ton	-4700
▁uon	-4701
tia	-4702
tid	-4703
tig	-4704
tii	-4705
tim	-4706
tio	-4707
tip	-4708
tit	-4709
tiu	-4710
toa	-4711
toc	-4712
tod	-4713
toe	-4714
tog	-4715
toi	-4716
tol	-4717
tom	-4718
too	-4719
top	-4720
tot	-4721
tou	-4722
mea	-4723
med	-4724
mee	-4725
meg	-4726
mei	-4727
mem	-4728
mep	-4729
met	-4730
meu	-4731
daa	-4732
dae	-4733
dag	-4734
dai	-4735
dao	-4736
dat	-4737
dau	-4738
gaa	-4739
gae	-4740
gag	-4741
gai	-4742
gao	-4743
gap	-4744
gat	-4745
gau	-4746
tea	-4747
ted	-4748
tee	-4749
tei	-4750
tem	-4751
tep	-4752
tet	-4753
teu	-4754
goa	-4755
goc	-4756
god	-4757
goe	-4758
gog	-4759
goi	-4760
gom	-4761
goo	-4762
gop	-4763
got	-4764
gou	-4765
gud	-4766
gug	-4767
gui	-4768
gum	-4769
guo	-4770
gup	-4771
gur	-4772
guu	-4773
paa	-4774
pae	-4775
pai	-4776
pao	-4777
pap	-4778
pat	-4779
pau	-4780
trc	-4781
trd	-4782
trg	-4783
trl	-4784
trm	-4785
trn	-4786
trp	-4787
trr	-4788
trs	-4789
trt	-4790
▁aos	-4791
▁cos	-4792
▁eos	-4793
▁gos	-4794
▁ios	-4795
▁oos	-4796
▁pos	-4797
▁ros	-4798
▁sos	-4799
▁tos	-4800
▁uos	-4801
did	-4802
dii	-4803
dil	-4804
dim	-4805
dip	-4806
dit	-4807
diu	-4808
taa	-4809
tae	-4810
tag	-4811
tai	-4812
tao	-4813
tap	-4814
tat	-4815
tau	-4816
▁antagonista	-4817
laa	-4818
lac	-4819
lad	-4820
lae	-4821
lag	-4822
lai	-4823
lal	-4824
lam	-4825
lao	-4826
lap	-4827
lat	-4828
lau	-4829
uea	-4830
ued	-4831
uee	-4832
ueg	-4833
uei	-4834
uem	-4835
ueo	-4836
uep	-4837
uet	-4838
ueu	-4839
▁aes	-4840
▁ces	-4841
▁ees	-4842
▁ies	-4843
▁mes	-4844
▁nes	-4845
▁oes	-4846
▁ses	-4847
▁tes	-4848
▁ues	-4849
dea	-4850
ded	-4851
dee	-4852
deg	-4853
dei	-4854
del	-4855
dem	-4856
deo	-4857
det	-4858
deu	-4859
▁aig	-4860
▁asp	-4861
▁cig	-4862
▁csp	-4863
▁dig	-4864
▁dsp	-4865
▁eig	-4866
▁gig	-4867
▁gsp	-4868
▁iig	-4869
▁isp	-4870
▁lig	-4871
▁lsp	-4872
▁mig	-4873
▁msp	-4874
▁nig	-4875
▁nsp	-4876
▁oig	-4877
▁pig	-4878
▁psp	-4879
▁rsp	-4880
▁ssp	-4881
▁tig	-4882
▁tsp	-4883
▁uig	-4884
cic	-4885
cid	-4886
cig	-4887
cii	-4888
cil	-4889
cim	-4890
cip	-4891
cir	-4892
cis	-4893
cit	-4894
ciu	-4895
doa	-4896
doc	-4897
dod	-4898
doe	-4899
dog	-4900
doi	-4901
dol	-4902
dom	-4903
doo	-4904
dop	-4905
dot	-4906
dou	-4907
drc	-4908
drd	-4909
drg	-4910
drl	-4911
drm	-4912
drn	-4913
drp	-4914
drr	-4915
drs	-4916
drt	-4917
dru	-4918
mia	-4919
mid	-4920
mii	-4921
mio	-4922
mip	-4923
mit	-4924
miu	-4925
▁aad	-4926
▁ais	-4927
▁cad	-4928
▁cis	-4929
▁dad	-4930
▁ead	-4931
▁eis	-4932
▁gad	-4933
▁gis	-4934
▁iad	-4935
▁iis	-4936
▁lis	-4937
▁mad	-4938
▁nis	-4939
▁oad	-4940
▁ois	-4941
▁pad	-4942
▁rad	-4943
▁ris	-4944
▁sad	-4945
▁sis	-4946
▁tis	-4947
▁uad	-4948
▁uis	-4949
usa	-4950
usc	-4951
usd	-4952
use	-4953
usg	-4954
usi	-4955
usl	-4956
usm	-4957
usn	-4958
usp	-4959
usr	-4960
uss	-4961
ust	-4962
usu	-4963
▁aas	-4964
▁auc	-4965
▁cas	-4966
▁cuc	-4967
▁das	-4968
▁duc	-4969
▁eas	-4970
▁euc	-4971
▁gas	-4972
▁guc	-4973
▁ias	-4974
▁iuc	-4975
▁mas	-4976
▁nas	-4977
▁nuc	-4978
▁oas	-4979
▁ouc	-4980
▁puc	-4981
▁ras	-4982
▁ruc	-4983
▁sas	-4984
▁suc	-4985
▁tuc	-4986
▁uas	-4987
▁uuc	-4988
unc	-4989
une	-4990
ung	-4991
uni	-4992
unl	-4993
unm	-4994
unn	-4995
unp	-4996
unr	-4997
uns	-4998
unt	-4999
unu	-5000
gea	-5001
gee	-5002
geg	-5003
gei	-5004
geo	-5005
gep	-5006
geu	-5007
gtc	-5008
gtd	-5009
gtg	-5010
gtl	-5011
gtm	-5012
gtn	-5013
gtp	-5014
gts	-5015
moa	-5016
moc	-5017
mod	-5018
moe	-5019
mog	-5020
mol	-5021
mom	-5022
moo	-5023
mop	-5024
mot	-5025
mou	-5026
pea	-5027
ped	-5028
pee	-5029
peg	-5030
pei	-5031
pem	-5032
pep	-5033
pet	-5034
peu	-5035
poa	-5036
poc	-5037
pod	-5038
poe	-5039
pog	-5040
poi	-5041
pom	-5042
poo	-5043
pop	-5044
pot	-5045
pou	-5046
lea	-5047
led	-5048
lee	-5049
lei	-5050
lel	-5051
lem	-5052
leo	-5053
let	-5054
leu	-5055
loa	-5056
loc	-5057
lod	-5058
loe	-5059
loi	-5060
lol	-5061
lom	-5062
loo	-5063
lop	-5064
lou	-5065
▁amp	-5066
▁cmp	-5067
▁dmp	-5068
▁emp	-5069
▁gmp	-5070
▁lmp	-5071
▁mmp	-5072
▁nmp	-5073
▁omp	-5074
▁pmp	-5075
▁rmp	-5076
▁smp	-5077
▁tmp	-5078
▁ump	-5079
▁aan	-5080
▁aug	-5081
▁can	-5082
▁dan	-5083
▁dug	-5084
▁ean	-5085
▁eug	-5086
▁gan	-5087
▁gug	-5088
▁ian	-5089
▁iug	-5090
▁mug	-5091
▁nan	-5092
▁nug	-5093
▁oan	-5094
▁oug	-5095
▁pan	-5096
▁pug	-5097
▁ran	-5098
▁rug	-5099
▁san	-5100
▁tug	-5101
▁uan	-5102
▁uug	-5103
ttc	-5104
ttd	-5105
ttg	-5106
ttl	-5107
ttm	-5108
ttn	-5109
ttp	-5110
tts	-5111
ttt	-5112
▁aac	-5113
▁cac	-5114
▁dac	-5115
▁eac	-5116
▁gac	-5117
▁iac	-5118
▁mac	-5119
▁nac	-5120
▁oac	-5121
▁pac	-5122
▁sac	-5123
▁uac	-5124
▁aup	-5125
▁eup	-5126
▁gup	-5127
▁iup	-5128
▁lup	-5129
▁mup	-5130
▁nup	-5131
▁oup	-5132
▁pup	-5133
▁rup	-5134
▁tup	-5135
▁uup	-5136
▁aec	-5137
▁cec	-5138
▁eec	-5139
▁gec	-5140
▁iec	-5141
▁mec	-5142
▁nec	-5143
▁oec	-5144
▁pec	-5145
▁sec	-5146
▁uec	-5147
▁tas	-5148
▁aci	-5149
▁cci	-5150
▁cns	-5151
▁dci	-5152
▁dns	-5153
▁eci	-5154
▁gci	-5155
▁gns	-5156
▁ici	-5157
▁lci	-5158
▁lns	-5159
▁mci	-5160
▁mns	-5161
▁nci	-5162
▁nns	-5163
▁oci	-5164
▁pci	-5165
▁pns	-5166
▁rci	-5167
▁rns	-5168
▁sci	-5169
▁sns	-5170
▁tci	-5171
▁tns	-5172
▁uci	-5173
▁aps	-5174
▁cps	-5175
▁dps	-5176
▁eps	-5177
▁gps	-5178
▁ips	-5179
▁lps	-5180
▁mps	-5181
▁nps	-5182
▁pps	-5183
▁rps	-5184
▁sps	-5185
▁tps	-5186
▁aal	-5187
▁dal	-5188
▁eal	-5189
▁gal	-5190
▁ial	-5191
▁nal	-5192
▁oal	-5193
▁pal	-5194
▁ral	-5195
▁ual	-5196
descubre	-5197
icc	-5198
icd	-5199
icg	-5200
icl	-5201
icm	-5202
icn	-5203
icp	-5204
icr	-5205
ict	-5206
icu	-5207
▁aol	-5208
▁aun	-5209
▁cun	-5210
▁dun	-5211
▁eol	-5212
▁eun	-5213
▁gol	-5214
▁gun	-5215
▁iol	-5216
▁iun	-5217
▁lun	-5218
▁mun	-5219
▁ool	-5220
▁oun	-5221
▁run	-5222
▁sun	-5223
▁tol	-5224
▁tun	-5225
▁uol	-5226
▁uun	-5227
pia	-5228
pid	-5229
pii	-5230
pio	-5231
pip	-5232
pit	-5233
piu	-5234
ptc	-5235
ptd	-5236
ptg	-5237
ptl	-5238
ptm	-5239
ptn	-5240
ptp	-5241
pts	-5242
▁ael	-5243
▁eel	-5244
▁gel	-5245
▁iel	-5246
▁lel	-5247
▁mel	-5248
▁nel	-5249
▁oel	-5250
pmc	-5251
pmd	-5252
pmg	-5253
pml	-5254
pmm	-5255
pmn	-5256
pmr	-5257
pms	-5258
pmt	-5259
pmu	-5260
prc	-5261
prd	-5262
prg	-5263
prl	-5264
prm	-5265
prn	-5266
prp	-5267
prr	-5268
prt	-5269
ulc	-5270
uld	-5271
ulg	-5272
uli	-5273
ulm	-5274
uln	-5275
ulp	-5276
ulr	-5277
uls	-5278
ulu	-5279
pcc	-5280
pcd	-5281
pcg	-5282
pcl	-5283
pcm	-5284
pcn	-5285
pcp	-5286
pcs	-5287
pct	-5288
pdd	-5289
pdp	-5290
pdt	-5291
pdu	-5292
pgg	-5293
pgp	-5294
plc	-5295
plm	-5296
pln	-5297
plp	-5298
plr	-5299
pls	-5300
plt	-5301
pnc	-5302
png	-5303
pnl	-5304
pnm	-5305
pnn	-5306
pnp	-5307
pnr	-5308
pnt	-5309
pnu	-5310
pua	-5311
pui	-5312
pum	-5313
puo	-5314
pur	-5315
puu	-5316
uca	-5317
ucc	-5318
ucd	-5319
ucg	-5320
ucl	-5321
ucm	-5322
ucn	-5323
uco	-5324
ucp	-5325
ucs	-5326
uct	-5327
ucu	-5328
utc	-5329
utd	-5330
utg	-5331
utl	-5332
utm	-5333
utn	-5334
utp	-5335
uts	-5336
utt	-5337
isa	-5338
isc	-5339
isd	-5340
isg	-5341
isi	-5342
isl	-5343
ism	-5344
isn	-5345
isp	-5346
isr	-5347
iss	-5348
isu	-5349
▁aam	-5350
▁dam	-5351
▁eam	-5352
▁gam	-5353
▁iam	-5354
▁mam	-5355
▁nam	-5356
▁oam	-5357
▁pam	-5358
▁sam	-5359
▁uam	-5360
inc	-5361
ind	-5362
ine	-5363
inl	-5364
inm	-5365
inn	-5366
inp	-5367
inr	-5368
ins	-5369
▁aro	-5370
▁cro	-5371
▁dro	-5372
▁iro	-5373
▁lro	-5374
▁mro	-5375
▁nro	-5376
▁rro	-5377
▁sro	-5378
▁tro	-5379
▁uro	-5380
alguien	-5381
▁aar	-5382
▁aco	-5383
▁adg	-5384
▁aeg	-5385
▁cco	-5386
▁cdg	-5387
▁ceg	-5388
▁dar	-5389
▁dco	-5390
▁ddg	-5391
▁ear	-5392
▁eco	-5393
▁eeg	-5394
▁gar	-5395
▁gco	-5396
▁gdg	-5397
▁geg	-5398
▁iar	-5399
▁idg	-5400
▁ieg	-5401
▁lco	-5402
▁ldg	-5403
▁mco	-5404
▁mdg	-5405
▁nar	-5406
▁nco	-5407
▁ndg	-5408
▁neg	-5409
▁oar	-5410
▁oco	-5411
▁odg	-5412
▁oeg	-5413
▁pco	-5414
▁pdg	-5415
▁peg	-5416
▁rar	-5417
▁rco	-5418
▁rdg	-5419
▁sar	-5420
▁sco	-5421
▁sdg	-5422
▁tco	-5423
▁tdg	-5424
▁uar	-5425
▁udg	-5426
▁aim	-5427
▁cim	-5428
▁eim	-5429
▁gim	-5430
▁iim	-5431
▁lim	-5432
▁mim	-5433
▁nim	-5434
▁oim	-5435
▁pim	-5436
▁uim	-5437
▁aor	-5438
▁dor	-5439
▁eor	-5440
▁gor	-5441
▁ior	-5442
▁lor	-5443
▁nor	-5444
▁oor	-5445
▁ror	-5446
▁tor	-5447
▁uor	-5448
▁air	-5449
▁ccr	-5450
▁dcr	-5451
▁ecr	-5452
▁eir	-5453
▁gcr	-5454
▁gir	-5455
▁iir	-5456
▁lcr	-5457
▁lir	-5458
▁mcr	-5459
▁mir	-5460
▁ncr	-5461
▁nir	-5462
▁ocr	-5463
▁oir	-5464
▁pcr	-5465
▁pir	-5466
▁rcr	-5467
▁scr	-5468
▁tcr	-5469
▁uir	-5470
gii	-5471
gip	-5472
giu	-5473
▁ala	-5474
▁dla	-5475
▁ela	-5476
▁gla	-5477
▁ila	-5478
▁mla	-5479
▁nla	-5480
▁ola	-5481
▁pla	-5482
▁rla	-5483
▁sla	-5484
▁tla	-5485
▁ula	-5486
eca	-5487
ecc	-5488
ecd	-5489
ecg	-5490
ecl	-5491
ecm	-5492
ecn	-5493
eco	-5494
ecp	-5495
ecr	-5496
ecs	-5497
ect	-5498
lia	-5499
lid	-5500
lii	-5501
lil	-5502
lim	-5503
lip	-5504
lir	-5505
liu	-5506
▁ads	-5507
▁ags	-5508
▁ccs	-5509
▁cds	-5510
▁cgs	-5511
▁cms	-5512
▁css	-5513
▁cts	-5514
▁dcs	-5515
▁dds	-5516
▁dgs	-5517
▁dls	-5518
▁dms	-5519
▁dss	-5520
▁dts	-5521
▁ecs	-5522
▁eds	-5523
▁egs	-5524
▁ems	-5525
▁ets	-5526
▁gcs	-5527
▁gds	-5528
▁ggs	-5529
▁gls	-5530
▁gms	-5531
▁gss	-5532
▁gts	-5533
▁ids	-5534
▁igs	-5535
▁ils	-5536
▁ims	-5537
▁its	-5538
▁lcs	-5539
▁lds	-5540
▁lgs	-5541
▁lms	-5542
▁lss	-5543
▁lts	-5544
▁mcs	-5545
▁mds	-5546
▁mgs	-5547
▁mls	-5548
▁mms	-5549
▁mss	-5550
▁mts	-5551
▁ncs	-5552
▁nds	-5553
▁ngs	-5554
▁nls	-5555
▁nms	-5556
▁nss	-5557
▁nts	-5558
▁ocs	-5559
▁ods	-5560
▁ogs	-5561
▁oms	-5562
▁ots	-5563
▁pcs	-5564
▁pds	-5565
▁pgs	-5566
▁pls	-5567
▁pms	-5568
▁pts	-5569
▁rcs	-5570
▁rds	-5571
▁rgs	-5572
▁rls	-5573
▁rms	-5574
▁rss	-5575
▁rts	-5576
▁sds	-5577
▁sgs	-5578
▁sls	-5579
▁sms	-5580
▁sss	-5581
▁sts	-5582
▁tcs	-5583
▁tds	-5584
▁tgs	-5585
▁tls	-5586
▁tms	-5587
▁tss	-5588
▁tts	-5589
▁uds	-5590
▁ugs	-5591
▁ums	-5592
▁uts	-5593
psc	-5594
psd	-5595
psg	-5596
psl	-5597
psm	-5598
psn	-5599
pso	-5600
psr	-5601
pss	-5602
pst	-5603
psu	-5604
▁crs	-5605
▁dlg	-5606
▁drs	-5607
▁glg	-5608
▁grs	-5609
▁ilg	-5610
▁irs	-5611
▁llg	-5612
▁lrs	-5613
▁mlg	-5614
▁mrs	-5615
▁nlg	-5616
▁nrs	-5617
▁olg	-5618
▁plg	-5619
▁prs	-5620
▁rlg	-5621
▁rrs	-5622
▁slg	-5623
▁srs	-5624
▁tlg	-5625
▁urs	-5626
▁adn	-5627
▁aed	-5628
▁agn	-5629
▁ccn	-5630
▁cdn	-5631
▁ced	-5632
▁cgn	-5633
▁cmn	-5634
▁crn	-5635
▁ctn	-5636
▁dcn	-5637
▁ddn	-5638
▁dgn	-5639
▁dln	-5640
▁dmn	-5641
▁drn	-5642
▁dtn	-5643
▁ecn	-5644
▁edn	-5645
▁eed	-5646
▁egn	-5647
▁emn	-5648
▁etn	-5649
▁gcn	-5650
▁gdn	-5651
▁ged	-5652
▁ggn	-5653
▁gln	-5654
▁gmn	-5655
▁grn	-5656
▁gtn	-5657
▁idn	-5658
▁ied	-5659
▁ign	-5660
▁iln	-5661
▁imn	-5662
▁irn	-5663
▁itn	-5664
▁lcn	-5665
▁ldn	-5666
▁led	-5667
▁lgn	-5668
▁lmn	-5669
▁lrn	-5670
▁ltn	-5671
▁mcn	-5672
▁mdn	-5673
▁mgn	-5674
▁mln	-5675
▁mmn	-5676
▁mrn	-5677
▁mtn	-5678
▁ncn	-5679
▁ndn	-5680
▁ned	-5681
▁ngn	-5682
▁nln	-5683
▁nmn	-5684
▁nrn	-5685
▁ntn	-5686
▁ocn	-5687
▁odn	-5688
▁oed	-5689
▁ogn	-5690
▁omn	-5691
▁otn	-5692
▁pcn	-5693
▁pdn	-5694
▁ped	-5695
▁pgn	-5696
▁pln	-5697
▁pmn	-5698
▁prn	-5699
▁ptn	-5700
▁rcn	-5701
▁rdn	-5702
▁rgn	-5703
▁rln	-5704
▁rmn	-5705
▁rrn	-5706
▁rtn	-5707
▁sdn	-5708
▁sgn	-5709
▁sln	-5710
▁smn	-5711
▁srn	-5712
▁stn	-5713
▁tcn	-5714
▁tdn	-5715
▁tgn	-5716
▁tln	-5717
▁tmn	-5718
▁ttn	-5719
▁udn	-5720
▁ugn	-5721
▁umn	-5722
▁urn	-5723
▁utn	-5724
▁ado	-5725
▁atu	-5726
▁cdo	-5727
▁cpo	-5728
▁ctu	-5729
▁ddo	-5730
▁dpo	-5731
▁dtu	-5732
▁edo	-5733
▁epo	-5734
▁etu	-5735
▁gdo	-5736
▁gpo	-5737
▁gtu	-5738
▁ido	-5739
▁ipo	-5740
▁itu	-5741
▁ldo	-5742
▁lpo	-5743
▁ltu	-5744
▁mdo	-5745
▁mpo	-5746
▁mtu	-5747
▁ndo	-5748
▁npo	-5749
▁ntu	-5750
▁odo	-5751
▁opo	-5752
▁otu	-5753
▁pdo	-5754
▁ppo	-5755
▁ptu	-5756
▁rdo	-5757
▁rpo	-5758
▁rtu	-5759
▁sdo	-5760
▁spo	-5761
▁stu	-5762
▁tdo	-5763
▁tpo	-5764
▁ttu	-5765
▁udo	-5766
▁upo	-5767
▁utu	-5768
iga	-5769
igc	-5770
igd	-5771
ige	-5772
igg	-5773
igi	-5774
igl	-5775
igm	-5776
ign	-5777
igp	-5778
igr	-5779
igs	-5780
igt	-5781
▁aem	-5782
▁aer	-5783
▁aom	-5784
▁are	-5785
▁ato	-5786
▁cem	-5787
▁cer	-5788
▁cto	-5789
▁der	-5790
▁dom	-5791
▁dre	-5792
▁dto	-5793
▁eem	-5794
▁eer	-5795
▁eom	-5796
▁eto	-5797
▁gem	-5798
▁gom	-5799
▁gre	-5800
▁gto	-5801
▁ico	-5802
▁iem	-5803
▁ier	-5804
▁iom	-5805
▁ire	-5806
▁ito	-5807
▁ler	-5808
▁lre	-5809
▁lto	-5810
▁mre	-5811
▁mto	-5812
▁nem	-5813
▁ner	-5814
▁nre	-5815
▁nto	-5816
▁oem	-5817
▁oer	-5818
▁oom	-5819
▁ore	-5820
▁oto	-5821
▁pem	-5822
▁pto	-5823
▁rer	-5824
▁rre	-5825
▁rto	-5826
▁sre	-5827
▁sto	-5828
▁tre	-5829
▁tto	-5830
▁uer	-5831
▁uom	-5832
▁ure	-5833
▁uto	-5834
▁atm	-5835
▁cnn	-5836
▁cno	-5837
▁ctm	-5838
▁dnn	-5839
▁dno	-5840
▁dtm	-5841
▁etm	-5842
▁gnn	-5843
▁gno	-5844
▁gtm	-5845
▁itm	-5846
▁lnn	-5847
▁lno	-5848
▁ltm	-5849
▁mnn	-5850
▁mno	-5851
▁mtm	-5852
▁nnn	-5853
▁nno	-5854
▁ntm	-5855
▁otm	-5856
▁pnn	-5857
▁pno	-5858
▁ptm	-5859
▁rnn	-5860
▁rno	-5861
▁rtm	-5862
▁snn	-5863
▁sno	-5864
▁stm	-5865
▁tnn	-5866
▁tno	-5867
▁ttm	-5868
▁utm	-5869
iea	-5870
ied	-5871
iee	-5872
ieg	-5873
iei	-5874
iel	-5875
iem	-5876
ieo	-5877
iep	-5878
iet	-5879
ieu	-5880
▁aud	-5881
▁aul	-5882
▁cld	-5883
▁dld	-5884
▁dul	-5885
▁eud	-5886
▁eul	-5887
▁gld	-5888
▁gud	-5889
▁gul	-5890
▁ild	-5891
▁iud	-5892
▁iul	-5893
▁lld	-5894
▁lud	-5895
▁lul	-5896
▁mld	-5897
▁mud	-5898
▁mul	-5899
▁nld	-5900
▁nud	-5901
▁nul	-5902
▁old	-5903
▁oud	-5904
▁oul	-5905
▁pld	-5906
▁pud	-5907
▁pul	-5908
▁rld	-5909
▁rud	-5910
▁rul	-5911
▁sld	-5912
▁sul	-5913
▁tld	-5914
▁tud	-5915
▁tul	-5916
▁uud	-5917
▁uul	-5918
aca	-5919
acc	-5920
acd	-5921
acg	-5922
acl	-5923
acm	-5924
acn	-5925
aco	-5926
acp	-5927
acr	-5928
acs	-5929
acu	-5930
▁adm	-5931
▁agm	-5932
▁ain	-5933
▁amo	-5934
▁cdm	-5935
▁cgm	-5936
▁cin	-5937
▁cmo	-5938
▁ddm	-5939
▁dgm	-5940
▁din	-5941
▁dmo	-5942
▁dum	-5943
▁edm	-5944
▁egm	-5945
▁ein	-5946
▁eum	-5947
▁gdm	-5948
▁ggm	-5949
▁gin	-5950
▁gmo	-5951
▁gum	-5952
▁idm	-5953
▁igm	-5954
▁iin	-5955
▁imo	-5956
▁ium	-5957
▁ldm	-5958
▁lgm	-5959
▁lin	-5960
▁lmo	-5961
▁lum	-5962
▁mdm	-5963
▁mgm	-5964
▁min	-5965
▁mmo	-5966
▁ndm	-5967
▁ngm	-5968
▁nin	-5969
▁nmo	-5970
▁odm	-5971
▁ogm	-5972
▁oin	-5973
▁omo	-5974
▁oum	-5975
▁pdm	-5976
▁pgm	-5977
▁pmo	-5978
▁pum	-5979
▁rdm	-5980
▁rgm	-5981
▁rin	-5982
▁rmo	-5983
▁rum	-5984
▁sdm	-5985
▁sgm	-5986
▁smo	-5987
▁tdm	-5988
▁tgm	-5989
▁tin	-5990
▁tmo	-5991
▁tum	-5992
▁udm	-5993
▁ugm	-5994
▁uin	-5995
▁umo	-5996
▁uum	-5997
cea	-5998
ced	-5999
cee	-6000
ceg	-6001
cei	-6002
cem	-6003
ceo	-6004
cet	-6005
ceu	-6006
ppp	-6007
caa	-6008
cae	-6009
cag	-6010
cai	-6011
cao	-6012
cap	-6013
cat	-6014
cau	-6015
cua	-6016
cud	-6017
cug	-6018
cui	-6019
cum	-6020
cuo	-6021
cup	-6022
cut	-6023
cuu	-6024
lua	-6025
lud	-6026
lug	-6027
lui	-6028
luo	-6029
lup	-6030
lur	-6031
luu	-6032
▁adr	-6033
▁aid	-6034
▁cdr	-6035
▁cid	-6036
▁cll	-6037
▁ddr	-6038
▁dll	-6039
▁edr	-6040
▁eid	-6041
▁gdr	-6042
▁gid	-6043
▁gll	-6044
▁idr	-6045
▁iid	-6046
▁ill	-6047
▁ldr	-6048
▁lid	-6049
▁lll	-6050
▁mdr	-6051
▁mid	-6052
▁mll	-6053
▁ndr	-6054
▁nid	-6055
▁nll	-6056
▁odr	-6057
▁oid	-6058
▁oll	-6059
▁pdr	-6060
▁pid	-6061
▁pll	-6062
▁rdr	-6063
▁rll	-6064
▁sdr	-6065
▁sll	-6066
▁tdr	-6067
▁tll	-6068
▁udr	-6069
▁uid	-6070
gcc	-6071
gcd	-6072
gcg	-6073
gcl	-6074
gcm	-6075
gcn	-6076
gcp	-6077
gcs	-6078
gct	-6079
gdd	-6080
gdp	-6081
gdt	-6082
gdu	-6083
glc	-6084
glm	-6085
gln	-6086
glp	-6087
glr	-6088
gls	-6089
glt	-6090
grc	-6091
grd	-6092
grg	-6093
grl	-6094
grm	-6095
grn	-6096
grp	-6097
grr	-6098
grt	-6099
raíz	-6100
▁aic	-6101
▁apn	-6102
▁cic	-6103
▁cpn	-6104
▁dic	-6105
▁dpn	-6106
▁eic	-6107
▁epn	-6108
▁gic	-6109
▁gpn	-6110
▁iic	-6111
▁ipn	-6112
▁lic	-6113
▁lpn	-6114
▁mic	-6115
▁mpn	-6116
▁nic	-6117
▁npn	-6118
▁oic	-6119
▁pic	-6120
▁ppn	-6121
▁ric	-6122
▁rpn	-6123
▁sic	-6124
▁tic	-6125
▁tpn	-6126
▁uic	-6127
▁upn	-6128
▁doble	-6129
▁ail	-6130
▁ata	-6131
▁cil	-6132
▁cta	-6133
▁dta	-6134
▁eil	-6135
▁eta	-6136
▁gil	-6137
▁gta	-6138
▁iil	-6139
▁ita	-6140
▁lil	-6141
▁lta	-6142
▁mil	-6143
▁mta	-6144
▁nil	-6145
▁nta	-6146
▁oil	-6147
▁ota	-6148
▁pil	-6149
▁pta	-6150
▁rta	-6151
▁tta	-6152
▁uil	-6153
▁uta	-6154
▁dri	-6155
▁iri	-6156
▁lri	-6157
▁mri	-6158
▁nri	-6159
▁rri	-6160
▁sri	-6161
▁tri	-6162
▁uri	-6163
crc	-6164
crd	-6165
crg	-6166
crl	-6167
crm	-6168
crn	-6169
crp	-6170
crr	-6171
crs	-6172
crt	-6173
cru	-6174
upc	-6175
upd	-6176
upg	-6177
upi	-6178
upl	-6179
upm	-6180
upn	-6181
upp	-6182
upr	-6183
ups	-6184
upt	-6185
upu	-6186
adc	-6187
add	-6188
ade	-6189
adg	-6190
adi	-6191
adl	-6192
adm	-6193
adn	-6194
adp	-6195
adr	-6196
ads	-6197
adt	-6198
ugc	-6199
ugd	-6200
uge	-6201
ugg	-6202
ugi	-6203
ugl	-6204
ugm	-6205
ugn	-6206
ugp	-6207
ugr	-6208
ugs	-6209
ugt	-6210
▁ago	-6211
▁aio	-6212
▁cgo	-6213
▁cio	-6214
▁cso	-6215
▁dgo	-6216
▁dso	-6217
▁ego	-6218
▁eio	-6219
▁ggo	-6220
▁gio	-6221
▁gso	-6222
▁igo	-6223
▁iio	-6224
▁iso	-6225
▁lgo	-6226
▁lio	-6227
▁lso	-6228
▁mgo	-6229
▁mio	-6230
▁mso	-6231
▁ngo	-6232
▁nio	-6233
▁nso	-6234
▁ogo	-6235
▁oio	-6236
▁pgo	-6237
▁pio	-6238
▁pso	-6239
▁rgo	-6240
▁rso	-6241
▁sgo	-6242
▁sso	-6243
▁tgo	-6244
▁tso	-6245
▁ugo	-6246
▁uio	-6247
▁apm	-6248
▁cpm	-6249
▁ctr	-6250
▁dpm	-6251
▁dtr	-6252
▁epm	-6253
▁etr	-6254
▁gpm	-6255
▁gtr	-6256
▁ipm	-6257
▁itr	-6258
▁lpm	-6259
▁ltr	-6260
▁mpm	-6261
▁mtr	-6262
▁npm	-6263
▁ntr	-6264
▁ppm	-6265
▁ptr	-6266
▁rpm	-6267
▁rtr	-6268
▁tpm	-6269
▁ttr	-6270
▁upm	-6271
▁utr	-6272
▁aen	-6273
▁cen	-6274
▁den	-6275
▁een	-6276
▁ien	-6277
▁len	-6278
▁nen	-6279
▁oen	-6280
▁pen	-6281
▁ren	-6282
▁sen	-6283
▁uel	-6284
▁uen	-6285
dgc	-6286
dgd	-6287
dgg	-6288
dgi	-6289
dgl	-6290
dgm	-6291
dgn	-6292
dgp	-6293
dgr	-6294
dgs	-6295
roa	-6296
roc	-6297
rod	-6298
roe	-6299
rog	-6300
roi	-6301
rol	-6302
roo	-6303
rop	-6304
rot	-6305
rou	-6306
▁cnd	-6307
▁dnd	-6308
▁gnd	-6309
▁lnd	-6310
▁mnd	-6311
▁nnd	-6312
▁pnd	-6313
▁rnd	-6314
▁snd	-6315
▁tnd	-6316
dcc	-6317
dcd	-6318
dcg	-6319
dcl	-6320
dcm	-6321
dcn	-6322
dcp	-6323
dcs	-6324
dct	-6325
dlc	-6326
dlm	-6327
dln	-6328
dlp	-6329
dlr	-6330
dls	-6331
dlt	-6332
▁aie	-6333
▁aod	-6334
▁ase	-6335
▁cde	-6336
▁cse	-6337
▁csi	-6338
▁dde	-6339
▁die	-6340
▁dse	-6341
▁dsi	-6342
▁ede	-6343
▁eie	-6344
▁eod	-6345
▁gde	-6346
▁gie	-6347
▁god	-6348
▁gse	-6349
▁gsi	-6350
▁ide	-6351
▁iie	-6352
▁iod	-6353
▁ise	-6354
▁isi	-6355
▁lde	-6356
▁lie	-6357
▁lse	-6358
▁lsi	-6359
▁mde	-6360
▁mse	-6361
▁msi	-6362
▁nde	-6363
▁nie	-6364
▁nse	-6365
▁nsi	-6366
▁ode	-6367
▁oie	-6368
▁ood	-6369
▁pde	-6370
▁pse	-6371
▁psi	-6372
▁rde	-6373
▁rse	-6374
▁rsi	-6375
▁sde	-6376
▁sie	-6377
▁sse	-6378
▁ssi	-6379
▁tde	-6380
▁tie	-6381
▁tse	-6382
▁tsi	-6383
▁ude	-6384
▁uie	-6385
▁uod	-6386
ona	-6387
onc	-6388
ond	-6389
oni	-6390
onl	-6391
onm	-6392
onn	-6393
onp	-6394
onr	-6395
ons	-6396
ont	-6397
onu	-6398
▁ale	-6399
▁alo	-6400
▁ati	-6401
▁cle	-6402
▁clo	-6403
▁cti	-6404
▁dle	-6405
▁dlo	-6406
▁dti	-6407
▁eti	-6408
▁gle	-6409
▁glo	-6410
▁gti	-6411
▁ile	-6412
▁ilo	-6413
▁iti	-6414
▁llo	-6415
▁lti	-6416
▁mle	-6417
▁mlo	-6418
▁mti	-6419
▁nle	-6420
▁nlo	-6421
▁nti	-6422
▁ole	-6423
▁olo	-6424
▁oti	-6425
▁ple	-6426
▁plo	-6427
▁pti	-6428
▁rle	-6429
▁rlo	-6430
▁rti	-6431
▁sle	-6432
▁slo	-6433
▁sti	-6434
▁tle	-6435
▁tlo	-6436
▁tti	-6437
▁ule	-6438
▁ulo	-6439
▁uti	-6440
▁aoc	-6441
▁ara	-6442
▁cmc	-6443
▁cra	-6444
▁csn	-6445
▁ctc	-6446
▁dmc	-6447
▁dra	-6448
▁dsn	-6449
▁dtc	-6450
▁emc	-6451
▁eoc	-6452
▁etc	-6453
▁gmc	-6454
▁goc	-6455
▁gsn	-6456
▁gtc	-6457
▁imc	-6458
▁ioc	-6459
▁ira	-6460
▁itc	-6461
▁lmc	-6462
▁lra	-6463
▁lsn	-6464
▁ltc	-6465
▁mmc	-6466
▁mra	-6467
▁msn	-6468
▁mtc	-6469
▁nmc	-6470
▁nra	-6471
▁nsn	-6472
▁ntc	-6473
▁omc	-6474
▁ooc	-6475
▁otc	-6476
▁pmc	-6477
▁pra	-6478
▁ptc	-6479
▁rmc	-6480
▁rra	-6481
▁rsn	-6482
▁rtc	-6483
▁smc	-6484
▁sra	-6485
▁ssn	-6486
▁stc	-6487
▁tmc	-6488
▁tsn	-6489
▁ttc	-6490
▁umc	-6491
▁uoc	-6492
▁ura	-6493
▁utc	-6494
naa	-6495
nae	-6496
nag	-6497
nai	-6498
nao	-6499
nap	-6500
nat	-6501
nau	-6502
gmc	-6503
gmd	-6504
gmg	-6505
gml	-6506
gmm	-6507
gmn	-6508
gmr	-6509
gms	-6510
gmt	-6511
gmu	-6512
gnc	-6513
gng	-6514
gnl	-6515
gnm	-6516
gnn	-6517
gnp	-6518
gnr	-6519
gnt	-6520
gnu	-6521
gsc	-6522
gsd	-6523
gsg	-6524
gsl	-6525
gsm	-6526
gsn	-6527
gsr	-6528
gss	-6529
gst	-6530
gsu	-6531
nee	-6532
nei	-6533
neo	-6534
nep	-6535
neu	-6536
nia	-6537
nid	-6538
nii	-6539
nio	-6540
nip	-6541
nit	-6542
niu	-6543
▁duo	-6544
▁euo	-6545
▁guo	-6546
▁iuo	-6547
▁luo	-6548
▁nuo	-6549
▁ouo	-6550
▁puo	-6551
▁ruo	-6552
▁tuo	-6553
▁uuo	-6554
▁eri	-6555
coa	-6556
coc	-6557
cod	-6558
coe	-6559
cog	-6560
coi	-6561
col	-6562
com	-6563
coo	-6564
cop	-6565
cot	-6566
cou	-6567
▁ate	-6568
▁cte	-6569
▁dte	-6570
▁ete	-6571
▁gte	-6572
▁ite	-6573
▁lte	-6574
▁mte	-6575
▁nte	-6576
▁ote	-6577
▁pte	-6578
▁rte	-6579
▁ste	-6580
▁tte	-6581
▁ute	-6582
alc	-6583
ald	-6584
ale	-6585
alg	-6586
alm	-6587
aln	-6588
alo	-6589
alp	-6590
alr	-6591
als	-6592
alt	-6593
alu	-6594
rid	-6595
rie	-6596
rig	-6597
rii	-6598
ril	-6599
rim	-6600
rip	-6601
rit	-6602
riu	-6603
▁acn	-6604
▁aln	-6605
▁amn	-6606
▁ann	-6607
▁apr	-6608
▁arn	-6609
▁asn	-6610
▁atn	-6611
▁cln	-6612
▁cpr	-6613
▁dpr	-6614
▁eln	-6615
▁enn	-6616
▁epr	-6617
▁ern	-6618
▁esn	-6619
▁gpr	-6620
▁icn	-6621
▁inn	-6622
▁ipr	-6623
▁isn	-6624
▁lan	-6625
▁lln	-6626
▁lpr	-6627
▁mpr	-6628
▁npr	-6629
▁oln	-6630
▁onn	-6631
▁opn	-6632
▁orn	-6633
▁osn	-6634
▁ppr	-6635
▁psn	-6636
▁rpr	-6637
▁scn	-6638
▁spn	-6639
▁tpr	-6640
▁trn	-6641
▁ucn	-6642
▁uln	-6643
▁unn	-6644
▁upr	-6645
▁usn	-6646
▁agr	-6647
▁aue	-6648
▁cgr	-6649
▁dgr	-6650
▁due	-6651
▁egr	-6652
▁eue	-6653
▁ggr	-6654
▁gue	-6655
▁igr	-6656
▁iue	-6657
▁lgr	-6658
▁lue	-6659
▁mgr	-6660
▁mue	-6661
▁ngr	-6662
▁nue	-6663
▁ogr	-6664
▁oue	-6665
▁pgr	-6666
▁rgr	-6667
▁rue	-6668
▁sgr	-6669
▁tgr	-6670
▁tue	-6671
▁ugr	-6672
▁uue	-6673
tdd	-6674
tdp	-6675
tdt	-6676
tdu	-6677
tgp	-6678
tlc	-6679
tlm	-6680
tln	-6681
tlp	-6682
tlr	-6683
tls	-6684
tlt	-6685
▁cmr	-6686
▁dmr	-6687
▁dur	-6688
▁emr	-6689
▁eur	-6690
▁gmr	-6691
▁gur	-6692
▁imr	-6693
▁iur	-6694
▁lmr	-6695
▁lur	-6696
▁mmr	-6697
▁nmr	-6698
▁nur	-6699
▁omr	-6700
▁our	-6701
▁pmr	-6702
▁pur	-6703
▁rir	-6704
▁rmr	-6705
▁rur	-6706
▁smr	-6707
▁tmr	-6708
▁tur	-6709
▁ucr	-6710
▁umr	-6711
▁uur	-6712
amc	-6713
amd	-6714
ame	-6715
amg	-6716
aml	-6717
amm	-6718
amn	-6719
amo	-6720
amr	-6721
amt	-6722
amu	-6723
▁adc	-6724
▁agc	-6725
▁apc	-6726
▁cdc	-6727
▁cgc	-6728
▁cpc	-6729
▁ddc	-6730
▁dgc	-6731
▁dpc	-6732
▁edc	-6733
▁egc	-6734
▁epc	-6735
▁gdc	-6736
▁ggc	-6737
▁gpc	-6738
▁idc	-6739
▁igc	-6740
▁ipc	-6741
▁ldc	-6742
▁lgc	-6743
▁lpc	-6744
▁mdc	-6745
▁mgc	-6746
▁mpc	-6747
▁ndc	-6748
▁ngc	-6749
▁npc	-6750
▁odc	-6751
▁ogc	-6752
▁pdc	-6753
▁pgc	-6754
▁ppc	-6755
▁rdc	-6756
▁rgc	-6757
▁rpc	-6758
▁sdc	-6759
▁sgc	-6760
▁tdc	-6761
▁tgc	-6762
▁tpc	-6763
▁udc	-6764
▁ugc	-6765
▁upc	-6766
sea	-6767
sed	-6768
see	-6769
seg	-6770
sei	-6771
sem	-6772
seo	-6773
sep	-6774
set	-6775
seu	-6776
spc	-6777
spd	-6778
spe	-6779
spg	-6780
spi	-6781
spl	-6782
spm	-6783
spn	-6784
spp	-6785
spr	-6786
sps	-6787
spt	-6788
spu	-6789
▁cnr	-6790
▁dlr	-6791
▁dnr	-6792
▁drr	-6793
▁glr	-6794
▁gnr	-6795
▁ilr	-6796
▁lnr	-6797
▁lrr	-6798
▁mlr	-6799
▁mnr	-6800
▁mrr	-6801
▁nlr	-6802
▁nnr	-6803
▁nrr	-6804
▁plr	-6805
▁pnr	-6806
▁rlr	-6807
▁rnr	-6808
▁rrr	-6809
▁slr	-6810
▁snr	-6811
▁srr	-6812
▁tlr	-6813
▁tnr	-6814
▁ull	-6815
▁urr	-6816
llc	-6817
lld	-6818
llg	-6819
lll	-6820
llm	-6821
lln	-6822
llp	-6823
llr	-6824
lls	-6825
llt	-6826
sia	-6827
sid	-6828
sii	-6829
sil	-6830
sim	-6831
sio	-6832
sip	-6833
sir	-6834
sit	-6835
siu	-6836
dmc	-6837
dmd	-6838
dmg	-6839
dml	-6840
dmm	-6841
dmn	-6842
dmr	-6843
dms	-6844
dmt	-6845
dmu	-6846
dnc	-6847
dng	-6848
dnl	-6849
dnm	-6850
dnn	-6851
dnp	-6852
dnr	-6853
dnt	-6854
dnu	-6855
dsc	-6856
dsd	-6857
dsg	-6858
dsl	-6859
dsm	-6860
dsn	-6861
dsr	-6862
dss	-6863
dst	-6864
dsu	-6865
ldc	-6866
ldd	-6867
ldg	-6868
ldl	-6869
ldm	-6870
ldn	-6871
ldp	-6872
lds	-6873
ldt	-6874
ldu	-6875
noa	-6876
noc	-6877
nod	-6878
noe	-6879
nog	-6880
noi	-6881
nom	-6882
noo	-6883
nop	-6884
not	-6885
nou	-6886
nsa	-6887
nsc	-6888
nsd	-6889
nsg	-6890
nsl	-6891
nsm	-6892
nsn	-6893
nso	-6894
nsr	-6895
nss	-6896
nst	-6897
nsu	-6898
▁clu	-6899
▁cut	-6900
▁dlu	-6901
▁dut	-6902
▁eut	-6903
▁glu	-6904
▁gut	-6905
▁ilu	-6906
▁iut	-6907
▁llu	-6908
▁lut	-6909
▁mlu	-6910
▁mut	-6911
▁nlu	-6912
▁nut	-6913
▁olu	-6914
▁plu	-6915
▁put	-6916
▁rlu	-6917
▁rut	-6918
▁slu	-6919
▁tlu	-6920
▁tut	-6921
▁uut	-6922
lgc	-6923
lgd	-6924
lgg	-6925
lgl	-6926
lgm	-6927
lgn	-6928
lgp	-6929
lgr	-6930
lgs	-6931
ndc	-6932
ndd	-6933
ndl	-6934
ndm	-6935
ndn	-6936
ndp	-6937
nds	-6938
ndt	-6939
ndu	-6940
udc	-6941
udd	-6942
udg	-6943
udl	-6944
udm	-6945
udn	-6946
udp	-6947
uds	-6948
udt	-6949
udu	-6950
▁agu	-6951
▁cgu	-6952
▁dgu	-6953
▁egu	-6954
▁ggu	-6955
▁lgu	-6956
▁mgu	-6957
▁ngu	-6958
▁ogu	-6959
▁pgu	-6960
▁rgu	-6961
▁sgu	-6962
▁tgu	-6963
▁ugu	-6964
osa	-6965
osc	-6966
osd	-6967
ose	-6968
osg	-6969
osl	-6970
osm	-6971
osn	-6972
osp	-6973
osr	-6974
oss	-6975
ost	-6976
osu	-6977
▁aeo	-6978
▁ceo	-6979
▁eeo	-6980
▁geo	-6981
▁ieo	-6982
▁oeo	-6983
▁peo	-6984
ggg	-6985
ggp	-6986
▁Bc	-6987
▁Dc	-6988
tmc	-6989
tmd	-6990
tmg	-6991
tml	-6992
tmm	-6993
tmn	-6994
tmr	-6995
tms	-6996
tmt	-6997
tmu	-6998
▁acs	-6999
▁als	-7000
▁ams	-7001
▁ans	-7002
▁ars	-7003
▁ass	-7004
▁ats	-7005
▁cls	-7006
▁ctt	-7007
▁dtt	-7008
▁els	-7009
▁ens	-7010
▁ers	-7011
▁ess	-7012
▁ett	-7013
▁gtt	-7014
▁ics	-7015
▁iss	-7016
▁itt	-7017
▁lls	-7018
▁ltt	-7019
▁mtt	-7020
▁ntt	-7021
▁ols	-7022
▁ons	-7023
▁ops	-7024
▁ors	-7025
▁oso	-7026
▁oss	-7027
▁ott	-7028
▁pss	-7029
▁ptt	-7030
▁rtt	-7031
▁scs	-7032
▁stt	-7033
▁trs	-7034
▁ttt	-7035
▁ucs	-7036
▁uls	-7037
▁uns	-7038
▁uss	-7039
▁utt	-7040
esc	-7041
esd	-7042
ese	-7043
esi	-7044
esl	-7045
esm	-7046
esn	-7047
eso	-7048
esp	-7049
esr	-7050
ess	-7051
esu	-7052
▁ace	-7053
▁aet	-7054
▁ape	-7055
▁cce	-7056
▁cet	-7057
▁cpe	-7058
▁dce	-7059
▁dpe	-7060
▁ece	-7061
▁eet	-7062
▁epe	-7063
▁gce	-7064
▁gpe	-7065
▁iet	-7066
▁ipe	-7067
▁lce	-7068
▁lpe	-7069
▁mce	-7070
▁mpe	-7071
▁nce	-7072
▁net	-7073
▁npe	-7074
▁oce	-7075
▁oet	-7076
▁ope	-7077
▁pce	-7078
▁pet	-7079
▁ppe	-7080
▁rce	-7081
▁rpe	-7082
▁sce	-7083
▁spe	-7084
▁tce	-7085
▁tpe	-7086
▁upe	-7087
erc	-7088
erd	-7089
ere	-7090
erl	-7091
erm	-7092
erp	-7093
ert	-7094
eru	-7095
▁acu	-7096
▁ait	-7097
▁ame	-7098
▁ccu	-7099
▁cit	-7100
▁cme	-7101
▁csr	-7102
▁dcu	-7103
▁dli	-7104
▁dme	-7105
▁dsr	-7106
▁ecu	-7107
▁eit	-7108
▁eme	-7109
▁gcu	-7110
▁git	-7111
▁gli	-7112
▁gme	-7113
▁gsr	-7114
▁iit	-7115
▁ili	-7116
▁ime	-7117
▁lcu	-7118
▁lit	-7119
▁lli	-7120
▁lme	-7121
▁lsr	-7122
▁mcu	-7123
▁mit	-7124
▁mli	-7125
▁mme	-7126
▁msr	-7127
▁ncu	-7128
▁nit	-7129
▁nli	-7130
▁nme	-7131
▁nsr	-7132
▁ocu	-7133
▁oit	-7134
▁oli	-7135
▁ome	-7136
▁ono	-7137
▁pcu	-7138
▁pit	-7139
▁pli	-7140
▁pme	-7141
▁rcu	-7142
▁rli	-7143
▁rme	-7144
▁rsr	-7145
▁scu	-7146
▁sli	-7147
▁sme	-7148
▁ssr	-7149
▁tcu	-7150
▁tli	-7151
▁tme	-7152
▁tsr	-7153
▁uit	-7154
▁ume	-7155
irc	-7156
ird	-7157
irg	-7158
irl	-7159
irm	-7160
irn	-7161
irp	-7162
irr	-7163
irs	-7164
irt	-7165
iru	-7166
orc	-7167
ord	-7168
org	-7169
orl	-7170
orn	-7171
oro	-7172
orp	-7173
ors	-7174
ort	-7175
oru	-7176
▁aao	-7177
▁aoo	-7178
▁eao	-7179
▁eoo	-7180
▁gao	-7181
▁iao	-7182
▁ioo	-7183
▁oao	-7184
▁ooo	-7185
▁uao	-7186
▁uoo	-7187
anc	-7188
ane	-7189
ang	-7190
anl	-7191
anm	-7192
ann	-7193
ano	-7194
anp	-7195
anr	-7196
ans	-7197
ant	-7198
anu	-7199
ilc	-7200
ilg	-7201
ill	-7202
ilm	-7203
iln	-7204
ilp	-7205
ilr	-7206
ils	-7207
ilt	-7208
▁Tc	-7209
▁ccl	-7210
▁cml	-7211
▁dcl	-7212
▁dml	-7213
▁ecl	-7214
▁eml	-7215
▁gcl	-7216
▁gml	-7217
▁iml	-7218
▁lcl	-7219
▁lml	-7220
▁mcl	-7221
▁mml	-7222
▁ncl	-7223
▁nml	-7224
▁ocl	-7225
▁oml	-7226
▁pcl	-7227
▁pml	-7228
▁rcl	-7229
▁rml	-7230
▁sml	-7231
▁tcl	-7232
▁tml	-7233
▁uml	-7234
imc	-7235
imd	-7236
img	-7237
imi	-7238
iml	-7239
imm	-7240
imn	-7241
imr	-7242
ims	-7243
imt	-7244
imu	-7245
tcc	-7246
tcd	-7247
tcg	-7248
tcl	-7249
tcm	-7250
tcn	-7251
tcp	-7252
tcs	-7253
tct	-7254
tnc	-7255
tng	-7256
tnl	-7257
tnm	-7258
tnn	-7259
tnp	-7260
tnr	-7261
tnt	-7262
tnu	-7263
tsc	-7264
tsd	-7265
tsg	-7266
tsl	-7267
tsm	-7268
tsn	-7269
tsr	-7270
tss	-7271
tst	-7272
tsu	-7273
▁Ec	-7274
▁Yc	-7275
▁adi	-7276
▁apt	-7277
▁cdi	-7278
▁cma	-7279
▁cpt	-7280
▁ddi	-7281
▁dma	-7282
▁dpt	-7283
▁ema	-7284
▁ept	-7285
▁gdi	-7286
▁gma	-7287
▁gpt	-7288
▁idi	-7289
▁ima	-7290
▁ipt	-7291
▁ldi	-7292
▁lma	-7293
▁lpt	-7294
▁mdi	-7295
▁mma	-7296
▁mpt	-7297
▁ndi	-7298
▁nma	-7299
▁npt	-7300
▁odi	-7301
▁oma	-7302
▁pdi	-7303
▁pma	-7304
▁ppt	-7305
▁rdi	-7306
▁rma	-7307
▁rpt	-7308
▁sdi	-7309
▁sma	-7310
▁spt	-7311
▁tdi	-7312
▁tma	-7313
▁tpt	-7314
▁udi	-7315
▁uma	-7316
▁upt	-7317
saa	-7318
sae	-7319
sag	-7320
sai	-7321
sao	-7322
sap	-7323
sat	-7324
▁agt	-7325
▁cgt	-7326
▁dgt	-7327
▁egt	-7328
▁ggt	-7329
▁igt	-7330
▁lgt	-7331
▁mgt	-7332
▁ngt	-7333
▁ogt	-7334
▁pgt	-7335
▁rgt	-7336
▁sgt	-7337
▁tgt	-7338
▁ugt	-7339
elc	-7340
eld	-7341
elg	-7342
ell	-7343
elm	-7344
eln	-7345
elp	-7346
elr	-7347
els	-7348
elt	-7349
elu	-7350
red	-7351
ree	-7352
reg	-7353
rei	-7354
rel	-7355
rem	-7356
reo	-7357
rep	-7358
ret	-7359
reu	-7360
▁adl	-7361
▁agl	-7362
▁apl	-7363
▁cdl	-7364
▁cgl	-7365
▁cpl	-7366
▁ddl	-7367
▁dgl	-7368
▁dpl	-7369
▁edl	-7370
▁egl	-7371
▁epl	-7372
▁gdl	-7373
▁ggl	-7374
▁gpl	-7375
▁idl	-7376
▁igl	-7377
▁ipl	-7378
▁ldl	-7379
▁lgl	-7380
▁lpl	-7381
▁mdl	-7382
▁mgl	-7383
▁mpl	-7384
▁ndl	-7385
▁ngl	-7386
▁npl	-7387
▁odl	-7388
▁ogl	-7389
▁pdl	-7390
▁pgl	-7391
▁ppl	-7392
▁rdl	-7393
▁rgl	-7394
▁rpl	-7395
▁sdl	-7396
▁sgl	-7397
▁tdl	-7398
▁tgl	-7399
▁tpl	-7400
▁udl	-7401
▁ugl	-7402
▁upl	-7403
umc	-7404
umd	-7405
umg	-7406
uml	-7407
umm	-7408
umn	-7409
umr	-7410
ums	-7411
umt	-7412
umu	-7413
uoa	-7414
uoc	-7415
uoe	-7416
uog	-7417
uoi	-7418
uoo	-7419
uop	-7420
uot	-7421
uou	-7422
urc	-7423
urd	-7424
urg	-7425
url	-7426
urm	-7427
urp	-7428
urr	-7429
urt	-7430
▁acr	-7431
▁alr	-7432
▁amr	-7433
▁anr	-7434
▁arr	-7435
▁asr	-7436
▁aur	-7437
▁clr	-7438
▁crr	-7439
▁ctl	-7440
▁cur	-7441
▁dir	-7442
▁dtl	-7443
▁elr	-7444
▁enr	-7445
▁esr	-7446
▁etl	-7447
▁grr	-7448
▁gtl	-7449
▁icr	-7450
▁inr	-7451
▁irr	-7452
▁isr	-7453
▁itl	-7454
▁lar	-7455
▁llr	-7456
▁ltl	-7457
▁mtl	-7458
▁mur	-7459
▁ntl	-7460
▁olr	-7461
▁onr	-7462
▁opr	-7463
▁orr	-7464
▁osr	-7465
▁otl	-7466
▁prr	-7467
▁psr	-7468
▁ptl	-7469
▁rtl	-7470
▁sir	-7471
▁spr	-7472
▁stl	-7473
▁sur	-7474
▁tir	-7475
▁trr	-7476
▁ttl	-7477
▁ulr	-7478
▁unr	-7479
▁usr	-7480
▁utl	-7481
asa	-7482
asd	-7483
asg	-7484
asl	-7485
asn	-7486
asp	-7487
asr	-7488
ass	-7489
ast	-7490
asu	-7491
▁Ac	-7492
▁aat	-7493
▁eat	-7494
▁gat	-7495
▁iat	-7496
▁oat	-7497
▁uat	-7498
raa	-7499
rac	-7500
rae	-7501
rag	-7502
rai	-7503
ram	-7504
rao	-7505
rap	-7506
rat	-7507
rau	-7508
uaa	-7509
uae	-7510
uag	-7511
uai	-7512
uao	-7513
uap	-7514
uia	-7515
uii	-7516
uip	-7517
uiu	-7518
▁dru	-7519
▁iru	-7520
▁lru	-7521
▁mru	-7522
▁nru	-7523
▁pru	-7524
▁rru	-7525
▁sru	-7526
▁uru	-7527
▁ccc	-7528
▁dcc	-7529
▁ecc	-7530
▁gcc	-7531
▁ica	-7532
▁lcc	-7533
▁mcc	-7534
▁ncc	-7535
▁occ	-7536
▁osi	-7537
▁pcc	-7538
▁rcc	-7539
▁tcc	-7540
mua	-7541
mui	-7542
muu	-7543
▁aau	-7544
▁ano	-7545
▁auo	-7546
▁cao	-7547
▁coo	-7548
▁cuo	-7549
▁dao	-7550
▁deo	-7551
▁dio	-7552
▁doo	-7553
▁eau	-7554
▁elo	-7555
▁ero	-7556
▁eso	-7557
▁gau	-7558
▁goo	-7559
▁iau	-7560
▁ino	-7561
▁lao	-7562
▁leo	-7563
▁loo	-7564
▁mao	-7565
▁meo	-7566
▁moo	-7567
▁muo	-7568
▁nao	-7569
▁nau	-7570
▁neo	-7571
▁noo	-7572
▁oau	-7573
▁pao	-7574
▁poo	-7575
▁rao	-7576
▁reo	-7577
▁rio	-7578
▁roo	-7579
▁sao	-7580
▁sau	-7581
▁seo	-7582
▁sio	-7583
▁soo	-7584
▁suo	-7585
▁tao	-7586
▁teo	-7587
▁tio	-7588
▁too	-7589
▁uau	-7590
▁uco	-7591
▁ueo	-7592
eng	-7593
eni	-7594
enl	-7595
enm	-7596
enn	-7597
enp	-7598
enr	-7599
ens	-7600
enu	-7601
rsc	-7602
rsd	-7603
rsg	-7604
rsl	-7605
rsm	-7606
rsn	-7607
rsr	-7608
rss	-7609
rst	-7610
rsu	-7611
▁Uc	-7612
▁age	-7613
▁cge	-7614
▁cmm	-7615
▁dge	-7616
▁dmm	-7617
▁ege	-7618
▁emm	-7619
▁gge	-7620
▁gmm	-7621
▁ige	-7622
▁imm	-7623
▁lge	-7624
▁lmm	-7625
▁mge	-7626
▁mmm	-7627
▁nge	-7628
▁nmm	-7629
▁oge	-7630
▁omm	-7631
▁pge	-7632
▁pmm	-7633
▁rge	-7634
▁rmm	-7635
▁sge	-7636
▁smm	-7637
▁tge	-7638
▁tmm	-7639
▁uge	-7640
▁umm	-7641
arg	-7642
arl	-7643
arm	-7644
arn	-7645
arp	-7646
arr	-7647
ars	-7648
art	-7649
aru	-7650
olc	-7651
old	-7652
olg	-7653
oli	-7654
oll	-7655
olm	-7656
oln	-7657
olp	-7658
olr	-7659
ols	-7660
olt	-7661
olu	-7662
▁Cc	-7663
▁aga	-7664
▁cga	-7665
▁dga	-7666
▁ega	-7667
▁gga	-7668
▁iga	-7669
▁lga	-7670
▁mga	-7671
▁nga	-7672
▁oga	-7673
▁pga	-7674
▁rga	-7675
▁sga	-7676
▁tga	-7677
▁uga	-7678
soa	-7679
soc	-7680
sod	-7681
soe	-7682
sog	-7683
soi	-7684
soo	-7685
sop	-7686
sot	-7687
sou	-7688
▁ana	-7689
▁cna	-7690
▁dna	-7691
▁gna	-7692
▁lna	-7693
▁mna	-7694
▁nna	-7695
▁pna	-7696
▁rna	-7697
▁sna	-7698
▁tna	-7699
▁aca	-7700
▁aea	-7701
▁cca	-7702
▁cea	-7703
▁cni	-7704
▁dca	-7705
▁dni	-7706
▁eca	-7707
▁eea	-7708
▁gca	-7709
▁gea	-7710
▁gni	-7711
▁iea	-7712
▁lca	-7713
▁lni	-7714
▁mca	-7715
▁mni	-7716
▁nca	-7717
▁nea	-7718
▁nni	-7719
▁oca	-7720
▁oea	-7721
▁pca	-7722
▁pea	-7723
▁pni	-7724
▁rca	-7725
▁rni	-7726
▁sca	-7727
▁sni	-7728
▁tca	-7729
▁tni	-7730
▁ami	-7731
▁cmi	-7732
▁dmi	-7733
▁emi	-7734
▁gmi	-7735
▁ice	-7736
▁imi	-7737
▁lmi	-7738
▁mmi	-7739
▁nmi	-7740
▁pmi	-7741
▁rmi	-7742
▁smi	-7743
▁tmi	-7744
▁umi	-7745
▁"	-7746
▁#	-7747
▁$	-7748
▁%	-7749
▁&	-7750
▁*	-7751
▁,	-7752
▁/	-7753
▁:	-7754
▁;	-7755
▁?	-7756
▁@	-7757
▁[	-7758
▁]	-7759
▁^	-7760
▁_	-7761
▁`	-7762
▁}	-7763
▁~	-7764
uuu	-7765
▁ada	-7766
▁cda	-7767
▁dda	-7768
▁eda	-7769
▁gda	-7770
▁ida	-7771
▁lda	-7772
▁mda	-7773
▁nda	-7774
▁oda	-7775
▁pda	-7776
▁rda	-7777
▁sda	-7778
▁tda	-7779
▁uda	-7780
tb	-7781
tf	-7782
tv	-7783
té	-7784
tí	-7785
tó	-7786
tú	-7787
▁api	-7788
▁cpi	-7789
▁dpi	-7790
▁epi	-7791
▁gpi	-7792
▁ipi	-7793
▁lpi	-7794
▁mpi	-7795
▁npi	-7796
▁ppi	-7797
▁rpi	-7798
▁spi	-7799
▁tpi	-7800
▁upi	-7801
mcc	-7802
mcd	-7803
mcg	-7804
mcl	-7805
mcm	-7806
mcn	-7807
mcp	-7808
mcs	-7809
mct	-7810
mnc	-7811
mng	-7812
mnl	-7813
mnm	-7814
mnn	-7815
mnp	-7816
mnr	-7817
mnt	-7818
mnu	-7819
mrc	-7820
mrd	-7821
mrg	-7822
mrl	-7823
mrm	-7824
mrp	-7825
mrr	-7826
mrt	-7827
msc	-7828
msd	-7829
msg	-7830
msl	-7831
msm	-7832
msn	-7833
msr	-7834
mss	-7835
mst	-7836
msu	-7837
▁add	-7838
▁agg	-7839
▁apg	-7840
▁cdd	-7841
▁cgg	-7842
▁cmd	-7843
▁cpg	-7844
▁ddd	-7845
▁dgg	-7846
▁dlc	-7847
▁dmd	-7848
▁dpg	-7849
▁edd	-7850
▁egg	-7851
▁emd	-7852
▁epg	-7853
▁gdd	-7854
▁ggg	-7855
▁glc	-7856
▁gmd	-7857
▁gpg	-7858
▁igg	-7859
▁ilc	-7860
▁imd	-7861
▁ipg	-7862
▁ldd	-7863
▁lgg	-7864
▁lmd	-7865
▁lpg	-7866
▁mdd	-7867
▁mgg	-7868
▁mlc	-7869
▁mmd	-7870
▁mpg	-7871
▁ndd	-7872
▁ngg	-7873
▁nlc	-7874
▁nmd	-7875
▁npg	-7876
▁odd	-7877
▁ogg	-7878
▁omd	-7879
▁pdd	-7880
▁pgg	-7881
▁plc	-7882
▁pmd	-7883
▁ppg	-7884
▁rdd	-7885
▁rgg	-7886
▁rlc	-7887
▁rmd	-7888
▁rpg	-7889
▁sdd	-7890
▁sgg	-7891
▁slc	-7892
▁smd	-7893
▁tad	-7894
▁tdd	-7895
▁tgg	-7896
▁tlc	-7897
▁tmd	-7898
▁tpg	-7899
▁udd	-7900
▁ugg	-7901
▁umd	-7902
▁upg	-7903
ub	-7904
uf	-7905
uh	-7906
uv	-7907
uy	-7908
uá	-7909
ué	-7910
uí	-7911
uó	-7912
uú	-7913
mlc	-7914
mlm	-7915
mln	-7916
mlp	-7917
mlr	-7918
mls	-7919
mlt	-7920
▁asa	-7921
▁csa	-7922
▁dsa	-7923
▁gsa	-7924
▁isa	-7925
▁lsa	-7926
▁msa	-7927
▁nsa	-7928
▁psa	-7929
▁rsa	-7930
▁ssa	-7931
▁tsa	-7932
▁aia	-7933
▁aog	-7934
▁apa	-7935
▁cpa	-7936
▁dpa	-7937
▁eia	-7938
▁eog	-7939
▁epa	-7940
▁gia	-7941
▁gog	-7942
▁gpa	-7943
▁iia	-7944
▁iog	-7945
▁ipa	-7946
▁lpa	-7947
▁mpa	-7948
▁nia	-7949
▁npa	-7950
▁oia	-7951
▁oog	-7952
▁opa	-7953
▁ppa	-7954
▁rpa	-7955
▁spa	-7956
▁tpa	-7957
▁uia	-7958
▁uog	-7959
▁upa	-7960
rua	-7961
rud	-7962
rui	-7963
rum	-7964
ruo	-7965
rur	-7966
ruu	-7967
▁apu	-7968
▁cmg	-7969
▁cnc	-7970
▁cpu	-7971
▁ctg	-7972
▁dmg	-7973
▁dnc	-7974
▁dpu	-7975
▁dtg	-7976
▁epu	-7977
▁etg	-7978
▁gmg	-7979
▁gnc	-7980
▁gpu	-7981
▁gtg	-7982
▁img	-7983
▁ipu	-7984
▁itg	-7985
▁lmg	-7986
▁lnc	-7987
▁lpu	-7988
▁ltg	-7989
▁mmg	-7990
▁mnc	-7991
▁mpu	-7992
▁mtg	-7993
▁nmg	-7994
▁nnc	-7995
▁npu	-7996
▁ntg	-7997
▁omg	-7998
▁otg	-7999
▁pmg	-8000
▁pnc	-8001
▁ppu	-8002
▁ptg	-8003
▁rmg	-8004
▁rnc	-8005
▁rpu	-8006
▁rtg	-8007
▁smg	-8008
▁snc	-8009
▁spu	-8010
▁stg	-8011
▁tmg	-8012
▁tnc	-8013
▁tpu	-8014
▁ttg	-8015
▁umg	-8016
▁upu	-8017
▁utg	-8018
▁aag	-8019
▁agd	-8020
▁apd	-8021
▁ccg	-8022
▁ccm	-8023
▁cgd	-8024
▁cnm	-8025
▁cpd	-8026
▁ctd	-8027
▁dcg	-8028
▁dcm	-8029
▁dgd	-8030
▁dlm	-8031
▁dnm	-8032
▁dpd	-8033
▁dtd	-8034
▁eag	-8035
▁ecg	-8036
▁ecm	-8037
▁egd	-8038
▁epd	-8039
▁etd	-8040
▁gag	-8041
▁gcg	-8042
▁gcm	-8043
▁ggd	-8044
▁glm	-8045
▁gnm	-8046
▁gpd	-8047
▁gtd	-8048
▁iag	-8049
▁igd	-8050
▁ilm	-8051
▁ipd	-8052
▁itd	-8053
▁lcg	-8054
▁lcm	-8055
▁lgd	-8056
▁lnm	-8057
▁lpd	-8058
▁ltd	-8059
▁mcg	-8060
▁mcm	-8061
▁mgd	-8062
▁mlm	-8063
▁mnm	-8064
▁mpd	-8065
▁mtd	-8066
▁ncg	-8067
▁ncm	-8068
▁ngd	-8069
▁nlm	-8070
▁nnm	-8071
▁npd	-8072
▁ntd	-8073
▁oag	-8074
▁ocg	-8075
▁ocm	-8076
▁ogd	-8077
▁otd	-8078
▁pcg	-8079
▁pcm	-8080
▁pgd	-8081
▁plm	-8082
▁pnm	-8083
▁ppd	-8084
▁ptd	-8085
▁rcg	-8086
▁rcm	-8087
▁rgd	-8088
▁rlm	-8089
▁rnm	-8090
▁rpd	-8091
▁rtd	-8092
▁sgd	-8093
▁slm	-8094
▁snm	-8095
▁std	-8096
▁tcg	-8097
▁tcm	-8098
▁tgd	-8099
▁tlm	-8100
▁tnm	-8101
▁tpd	-8102
▁ttd	-8103
▁uag	-8104
▁ugd	-8105
▁upd	-8106
▁utd	-8107
pb	-8108
pf	-8109
pv	-8110
py	-8111
pá	-8112
pé	-8113
pí	-8114
pó	-8115
pú	-8116
▁acm	-8117
▁alm	-8118
▁amm	-8119
▁anm	-8120
▁arm	-8121
▁asm	-8122
▁aum	-8123
▁clm	-8124
▁cng	-8125
▁crm	-8126
▁csm	-8127
▁cum	-8128
▁dim	-8129
▁dng	-8130
▁drm	-8131
▁dsm	-8132
▁elm	-8133
▁erm	-8134
▁esm	-8135
▁gng	-8136
▁grm	-8137
▁gsm	-8138
▁icm	-8139
▁inm	-8140
▁irm	-8141
▁ism	-8142
▁lam	-8143
▁lem	-8144
▁llm	-8145
▁lng	-8146
▁lom	-8147
▁lrm	-8148
▁lsm	-8149
▁mng	-8150
▁mom	-8151
▁mrm	-8152
▁msm	-8153
▁mum	-8154
▁nng	-8155
▁nom	-8156
▁nrm	-8157
▁nsm	-8158
▁olm	-8159
▁onm	-8160
▁opm	-8161
▁orm	-8162
▁osm	-8163
▁png	-8164
▁pom	-8165
▁prm	-8166
▁psm	-8167
▁ram	-8168
▁rem	-8169
▁rim	-8170
▁rng	-8171
▁rom	-8172
▁rrm	-8173
▁rsm	-8174
▁scm	-8175
▁sng	-8176
▁som	-8177
▁spm	-8178
▁srm	-8179
▁ssm	-8180
▁sum	-8181
▁tim	-8182
▁tng	-8183
▁tom	-8184
▁trm	-8185
▁tsm	-8186
▁ucm	-8187
▁uem	-8188
▁ulm	-8189
▁unm	-8190
▁urm	-8191
▁usm	-8192
▁acc	-8193
▁acg	-8194
▁alc	-8195
▁amc	-8196
▁amg	-8197
▁anc	-8198
▁ang	-8199
▁arc	-8200
▁arg	-8201
▁asc	-8202
▁asg	-8203
▁atc	-8204
▁atg	-8205
▁cag	-8206
▁clc	-8207
▁clg	-8208
▁coc	-8209
▁cog	-8210
▁crc	-8211
▁crg	-8212
▁csc	-8213
▁csg	-8214
▁cug	-8215
▁dag	-8216
▁dec	-8217
▁deg	-8218
▁doc	-8219
▁dog	-8220
▁drc	-8221
▁drg	-8222
▁dsc	-8223
▁dsg	-8224
▁elc	-8225
▁elg	-8226
▁emg	-8227
▁enc	-8228
▁eng	-8229
▁erc	-8230
▁erg	-8231
▁esc	-8232
▁esg	-8233
▁grc	-8234
▁grg	-8235
▁gsc	-8236
▁gsg	-8237
▁icc	-8238
▁icg	-8239
▁inc	-8240
▁ing	-8241
▁irc	-8242
▁irg	-8243
▁isc	-8244
▁isg	-8245
▁lac	-8246
▁lag	-8247
▁llc	-8248
▁loc	-8249
▁lrc	-8250
▁lrg	-8251
▁lsc	-8252
▁lsg	-8253
▁mag	-8254
▁meg	-8255
▁moc	-8256
▁mog	-8257
▁mrc	-8258
▁mrg	-8259
▁msc	-8260
▁msg	-8261
▁nag	-8262
▁nog	-8263
▁nrc	-8264
▁nrg	-8265
▁nsc	-8266
▁nsg	-8267
▁olc	-8268
▁onc	-8269
▁ong	-8270
▁opc	-8271
▁opg	-8272
▁orc	-8273
▁org	-8274
▁osc	-8275
▁osg	-8276
▁pag	-8277
▁poc	-8278
▁pog	-8279
▁prc	-8280
▁prg	-8281
▁psc	-8282
▁psg	-8283
▁rac	-8284
▁rag	-8285
▁rec	-8286
▁rig	-8287
▁roc	-8288
▁rog	-8289
▁rrc	-8290
▁rrg	-8291
▁rsc	-8292
▁rsg	-8293
▁sag	-8294
▁scc	-8295
▁scg	-8296
▁soc	-8297
▁sog	-8298
▁spc	-8299
▁spg	-8300
▁src	-8301
▁srg	-8302
▁ssc	-8303
▁ssg	-8304
▁tac	-8305
▁tag	-8306
▁teg	-8307
▁toc	-8308
▁tog	-8309
▁trc	-8310
▁trg	-8311
▁tsc	-8312
▁tsg	-8313
▁ucc	-8314
▁ucg	-8315
▁ueg	-8316
▁ulc	-8317
▁ulg	-8318
▁unc	-8319
▁ung	-8320
▁urc	-8321
▁urg	-8322
▁usc	-8323
▁usg	-8324
▁ccd	-8325
▁dcd	-8326
▁dua	-8327
▁ecd	-8328
▁eua	-8329
▁gcd	-8330
▁gua	-8331
▁iua	-8332
▁lcd	-8333
▁lua	-8334
▁mcd	-8335
▁ncd	-8336
▁nua	-8337
▁ocd	-8338
▁oua	-8339
▁pcd	-8340
▁pua	-8341
▁rcd	-8342
▁rua	-8343
▁tcd	-8344
▁tua	-8345
▁uua	-8346
▁cne	-8347
▁dne	-8348
▁gne	-8349
▁lne	-8350
▁mne	-8351
▁nne	-8352
▁pne	-8353
▁rne	-8354
▁sne	-8355
▁tne	-8356
▁Fc	-8357
▁aop	-8358
▁eop	-8359
▁gop	-8360
▁iop	-8361
▁oop	-8362
▁uop	-8363
▁aaa	-8364
▁app	-8365
▁cnl	-8366
▁cpp	-8367
▁dnl	-8368
▁dpp	-8369
▁eaa	-8370
▁epp	-8371
▁gaa	-8372
▁gnl	-8373
▁gpp	-8374
▁iaa	-8375
▁ipp	-8376
▁lnl	-8377
▁lpp	-8378
▁mnl	-8379
▁mpp	-8380
▁nnl	-8381
▁npp	-8382
▁oaa	-8383
▁pnl	-8384
▁ppp	-8385
▁rnl	-8386
▁rpp	-8387
▁snl	-8388
▁tnl	-8389
▁tpp	-8390
▁uaa	-8391
▁upp	-8392
▁acl	-8393
▁all	-8394
▁aml	-8395
▁anl	-8396
▁arl	-8397
▁asl	-8398
▁atl	-8399
▁crl	-8400
▁csl	-8401
▁dil	-8402
▁drl	-8403
▁dsl	-8404
▁ell	-8405
▁enl	-8406
▁erl	-8407
▁esl	-8408
▁grl	-8409
▁gsl	-8410
▁icl	-8411
▁inl	-8412
▁irl	-8413
▁isl	-8414
▁lal	-8415
▁lol	-8416
▁lrl	-8417
▁lsl	-8418
▁mrl	-8419
▁msl	-8420
▁nol	-8421
▁nrl	-8422
▁nsl	-8423
▁onl	-8424
▁opl	-8425
▁orl	-8426
▁osl	-8427
▁prl	-8428
▁psl	-8429
▁rel	-8430
▁ril	-8431
▁rrl	-8432
▁rsl	-8433
▁scl	-8434
▁sel	-8435
▁sil	-8436
▁spl	-8437
▁srl	-8438
▁ssl	-8439
▁tal	-8440
▁til	-8441
▁trl	-8442
▁tsl	-8443
▁ucl	-8444
▁unl	-8445
▁url	-8446
▁usl	-8447
▁adp	-8448
▁agp	-8449
▁ccp	-8450
▁cdp	-8451
▁cgp	-8452
▁ctp	-8453
▁dcp	-8454
▁ddp	-8455
▁dgp	-8456
▁dtp	-8457
▁ecp	-8458
▁edp	-8459
▁egp	-8460
▁etp	-8461
▁gcp	-8462
▁gdp	-8463
▁ggp	-8464
▁gtp	-8465
▁igp	-8466
▁itp	-8467
▁lcp	-8468
▁ldp	-8469
▁lgp	-8470
▁ltp	-8471
▁mcp	-8472
▁mdp	-8473
▁mgp	-8474
▁mtp	-8475
▁ncp	-8476
▁ndp	-8477
▁ngp	-8478
▁ntp	-8479
▁ocp	-8480
▁odp	-8481
▁ogp	-8482
▁otp	-8483
▁pcp	-8484
▁pdp	-8485
▁pgp	-8486
▁ptp	-8487
▁rcp	-8488
▁rdp	-8489
▁rgp	-8490
▁rtp	-8491
▁sdp	-8492
▁sgp	-8493
▁stp	-8494
▁tcp	-8495
▁tdp	-8496
▁tgp	-8497
▁ttp	-8498
▁udp	-8499
▁ugp	-8500
▁utp	-8501
▁aee	-8502
▁aip	-8503
▁cnp	-8504
▁dlp	-8505
▁dnp	-8506
▁eee	-8507
▁eip	-8508
▁gee	-8509
▁gip	-8510
▁glp	-8511
▁gnp	-8512
▁iee	-8513
▁iip	-8514
▁ilp	-8515
▁lnp	-8516
▁mlp	-8517
▁mnp	-8518
▁nip	-8519
▁nlp	-8520
▁nnp	-8521
▁oee	-8522
▁oip	-8523
▁pee	-8524
▁plp	-8525
▁pnp	-8526
▁rlp	-8527
▁rnp	-8528
▁slp	-8529
▁snp	-8530
▁tlp	-8531
▁tnp	-8532
▁uip	-8533
▁aap	-8534
▁aep	-8535
▁eap	-8536
▁eep	-8537
▁gap	-8538
▁gep	-8539
▁iap	-8540
▁iep	-8541
▁oap	-8542
▁oep	-8543
▁pep	-8544
▁uap	-8545
idc	-8546
idd	-8547
idg	-8548
idl	-8549
idm	-8550
idn	-8551
idp	-8552
ids	-8553
idt	-8554
ioa	-8555
ioc	-8556
ioe	-8557
iog	-8558
ioi	-8559
ioo	-8560
iop	-8561
iot	-8562
iou	-8563
itc	-8564
itd	-8565
itg	-8566
itl	-8567
itm	-8568
itn	-8569
itp	-8570
its	-8571
▁acd	-8572
▁ald	-8573
▁amd	-8574
▁and	-8575
▁ard	-8576
▁asd	-8577
▁atd	-8578
▁cod	-8579
▁crd	-8580
▁csd	-8581
▁cud	-8582
▁ded	-8583
▁did	-8584
▁dod	-8585
▁drd	-8586
▁dsd	-8587
▁eld	-8588
▁end	-8589
▁erd	-8590
▁esd	-8591
▁grd	-8592
▁gsd	-8593
▁icd	-8594
▁idd	-8595
▁ind	-8596
▁ird	-8597
▁isd	-8598
▁lad	-8599
▁lod	-8600
▁lrd	-8601
▁lsd	-8602
▁med	-8603
▁mrd	-8604
▁msd	-8605
▁nod	-8606
▁nrd	-8607
▁nsd	-8608
▁ond	-8609
▁opd	-8610
▁ord	-8611
▁osd	-8612
▁pod	-8613
▁prd	-8614
▁psd	-8615
▁rid	-8616
▁rod	-8617
▁rrd	-8618
▁rsd	-8619
▁scd	-8620
▁sed	-8621
▁sid	-8622
▁sod	-8623
▁spd	-8624
▁srd	-8625
▁ssd	-8626
▁sud	-8627
▁ted	-8628
▁tid	-8629
▁tod	-8630
▁trd	-8631
▁tsd	-8632
▁ucd	-8633
▁ued	-8634
▁uld	-8635
▁und	-8636
▁urd	-8637
▁usd	-8638
mdd	-8639
mdp	-8640
mdt	-8641
mdu	-8642
mmd	-8643
mmg	-8644
mmm	-8645
mmt	-8646
rnc	-8647
rng	-8648
rnl	-8649
rnm	-8650
rnn	-8651
rnp	-8652
rnr	-8653
rnt	-8654
rnu	-8655
omc	-8656
omd	-8657
omg	-8658
oml	-8659
omm	-8660
omn	-8661
omr	-8662
oms	-8663
omt	-8664
omu	-8665
▁aae	-8666
▁eae	-8667
▁gae	-8668
▁iae	-8669
▁oae	-8670
▁uae	-8671
▁aoa	-8672
▁aua	-8673
▁caa	-8674
▁cia	-8675
▁coa	-8676
▁cua	-8677
▁daa	-8678
▁dea	-8679
▁dia	-8680
▁doa	-8681
▁ena	-8682
▁eoa	-8683
▁esa	-8684
▁goa	-8685
▁ioa	-8686
▁laa	-8687
▁lea	-8688
▁lia	-8689
▁loa	-8690
▁maa	-8691
▁mea	-8692
▁mia	-8693
▁moa	-8694
▁mua	-8695
▁naa	-8696
▁noa	-8697
▁ona	-8698
▁ooa	-8699
▁ora	-8700
▁osa	-8701
▁paa	-8702
▁pia	-8703
▁poa	-8704
▁raa	-8705
▁rea	-8706
▁ria	-8707
▁roa	-8708
▁saa	-8709
▁sea	-8710
▁sia	-8711
▁soa	-8712
▁sua	-8713
▁taa	-8714
▁tea	-8715
▁tia	-8716
▁toa	-8717
▁uca	-8718
▁uea	-8719
▁uoa	-8720
aua	-8721
aud	-8722
aui	-8723
aum	-8724
auo	-8725
aur	-8726
auu	-8727
cnc	-8728
cng	-8729
cnl	-8730
cnm	-8731
cnn	-8732
cnp	-8733
cnr	-8734
cnt	-8735
cnu	-8736
csc	-8737
csd	-8738
csg	-8739
csl	-8740
csm	-8741
csn	-8742
csr	-8743
css	-8744
cst	-8745
csu	-8746
▁Sc	-8747
▁ane	-8748
▁aoe	-8749
▁cae	-8750
▁cee	-8751
▁coe	-8752
▁dae	-8753
▁dee	-8754
▁doe	-8755
▁ele	-8756
▁ene	-8757
▁eoe	-8758
▁ere	-8759
▁ese	-8760
▁goe	-8761
▁ine	-8762
▁ioe	-8763
▁lae	-8764
▁loe	-8765
▁mae	-8766
▁mee	-8767
▁moe	-8768
▁nae	-8769
▁nee	-8770
▁noe	-8771
▁one	-8772
▁ooe	-8773
▁ose	-8774
▁pae	-8775
▁poe	-8776
▁rae	-8777
▁ree	-8778
▁rie	-8779
▁roe	-8780
▁sae	-8781
▁see	-8782
▁soe	-8783
▁tae	-8784
▁tee	-8785
▁toe	-8786
▁uce	-8787
▁uee	-8788
▁une	-8789
▁uoe	-8790
▁use	-8791
clc	-8792
clm	-8793
cln	-8794
clp	-8795
clr	-8796
cls	-8797
clt	-8798
▁acp	-8799
▁alp	-8800
▁anp	-8801
▁arp	-8802
▁atp	-8803
▁cap	-8804
▁cep	-8805
▁cip	-8806
▁clp	-8807
▁cop	-8808
▁crp	-8809
▁cup	-8810
▁dap	-8811
▁dip	-8812
▁dop	-8813
▁drp	-8814
▁elp	-8815
▁enp	-8816
▁erp	-8817
▁esp	-8818
▁grp	-8819
▁icp	-8820
▁idp	-8821
▁inp	-8822
▁irp	-8823
▁lap	-8824
▁lep	-8825
▁lip	-8826
▁llp	-8827
▁lop	-8828
▁lrp	-8829
▁mep	-8830
▁mip	-8831
▁mop	-8832
▁mrp	-8833
▁nap	-8834
▁nep	-8835
▁nop	-8836
▁nrp	-8837
▁olp	-8838
▁onp	-8839
▁opp	-8840
▁orp	-8841
▁osp	-8842
▁pap	-8843
▁pip	-8844
▁pop	-8845
▁prp	-8846
▁rap	-8847
▁rep	-8848
▁rip	-8849
▁rop	-8850
▁rrp	-8851
▁sap	-8852
▁scp	-8853
▁sep	-8854
▁sip	-8855
▁sop	-8856
▁spp	-8857
▁srp	-8858
▁sup	-8859
▁tap	-8860
▁tep	-8861
▁tip	-8862
▁top	-8863
▁trp	-8864
▁ucp	-8865
▁uep	-8866
▁ulp	-8867
▁unp	-8868
▁urp	-8869
▁usp	-8870
▁dui	-8871
▁eui	-8872
▁gui	-8873
▁iui	-8874
▁lui	-8875
▁nui	-8876
▁oui	-8877
▁pui	-8878
▁rui	-8879
▁tui	-8880
▁uui	-8881
▁∅	-8882
conj	-8883
conjunto	-8884
▁agi	-8885
▁cgi	-8886
▁dgi	-8887
▁egi	-8888
▁ggi	-8889
▁igi	-8890
▁lgi	-8891
▁mgi	-8892
▁ngi	-8893
▁ogi	-8894
▁pgi	-8895
▁rgi	-8896
▁sgi	-8897
▁tgi	-8898
▁ugi	-8899
if	-8900
ih	-8901
iy	-8902
iá	-8903
ié	-8904
ií	-8905
iú	-8906
▁Xc	-8907
▁adt	-8908
▁cct	-8909
▁cdt	-8910
▁cmt	-8911
▁cnt	-8912
▁dct	-8913
▁ddt	-8914
▁dlt	-8915
▁dmt	-8916
▁dnt	-8917
▁edt	-8918
▁gct	-8919
▁gdt	-8920
▁glt	-8921
▁gmt	-8922
▁gnt	-8923
▁ilt	-8924
▁imt	-8925
▁lct	-8926
▁ldt	-8927
▁lmt	-8928
▁lnt	-8929
▁mct	-8930
▁mdt	-8931
▁mlt	-8932
▁mmt	-8933
▁mnt	-8934
▁nct	-8935
▁ndt	-8936
▁nlt	-8937
▁nmt	-8938
▁nnt	-8939
▁oct	-8940
▁odt	-8941
▁omt	-8942
▁pct	-8943
▁pdt	-8944
▁plt	-8945
▁pmt	-8946
▁pnt	-8947
▁rct	-8948
▁rdt	-8949
▁rlt	-8950
▁rmt	-8951
▁rnt	-8952
▁sdt	-8953
▁slt	-8954
▁smt	-8955
▁snt	-8956
▁tct	-8957
▁tdt	-8958
▁tlt	-8959
▁tmt	-8960
▁tnt	-8961
▁udt	-8962
▁ult	-8963
▁umt	-8964
▁aii	-8965
▁cmu	-8966
▁dmu	-8967
▁eii	-8968
▁emu	-8969
▁gii	-8970
▁gmu	-8971
▁iii	-8972
▁imu	-8973
▁lmu	-8974
▁mmu	-8975
▁nii	-8976
▁nmu	-8977
▁oii	-8978
▁omu	-8979
▁pmu	-8980
▁rmu	-8981
▁smu	-8982
▁tmu	-8983
▁uii	-8984
▁umu	-8985
ccc	-8986
ccd	-8987
ccg	-8988
ccm	-8989
ccp	-8990
cct	-8991
cdt	-8992
cdu	-8993
edc	-8994
edd	-8995
edg	-8996
edl	-8997
edm	-8998
edn	-8999
edp	-9000
eds	-9001
edt	-9002
edu	-9003
etc	-9004
etd	-9005
etg	-9006
etl	-9007
etm	-9008
etn	-9009
etp	-9010
ets	-9011
emc	-9012
emd	-9013
emg	-9014
eml	-9015
emm	-9016
emn	-9017
emr	-9018
ems	-9019
emt	-9020
emu	-9021
▁Zc	-9022
ddd	-9023
ddp	-9024
ddt	-9025
ddu	-9026
odc	-9027
odd	-9028
odl	-9029
odm	-9030
odn	-9031
odp	-9032
ods	-9033
odt	-9034
odu	-9035
▁aai	-9036
▁aei	-9037
▁eai	-9038
▁eei	-9039
▁gai	-9040
▁gei	-9041
▁iai	-9042
▁iei	-9043
▁oai	-9044
▁oei	-9045
▁pei	-9046
▁uai	-9047
▁act	-9048
▁alt	-9049
▁amt	-9050
▁ant	-9051
▁aot	-9052
▁art	-9053
▁ast	-9054
▁cat	-9055
▁clt	-9056
▁cot	-9057
▁crt	-9058
▁cst	-9059
▁dat	-9060
▁det	-9061
▁dit	-9062
▁dot	-9063
▁drt	-9064
▁dst	-9065
▁duu	-9066
▁ect	-9067
▁elt	-9068
▁emt	-9069
▁eot	-9070
▁ert	-9071
▁est	-9072
▁euu	-9073
▁got	-9074
▁grt	-9075
▁gst	-9076
▁guu	-9077
▁ict	-9078
▁idt	-9079
▁iot	-9080
▁irt	-9081
▁ist	-9082
▁iuu	-9083
▁lat	-9084
▁let	-9085
▁llt	-9086
▁lot	-9087
▁lrt	-9088
▁lst	-9089
▁luu	-9090
▁mat	-9091
▁met	-9092
▁mot	-9093
▁mrt	-9094
▁mst	-9095
▁nat	-9096
▁not	-9097
▁nrt	-9098
▁nst	-9099
▁nuu	-9100
▁olt	-9101
▁ont	-9102
▁oot	-9103
▁opt	-9104
▁ort	-9105
▁ost	-9106
▁ouu	-9107
▁pat	-9108
▁pot	-9109
▁prt	-9110
▁pst	-9111
▁puu	-9112
▁rat	-9113
▁ret	-9114
▁rit	-9115
▁rot	-9116
▁rrt	-9117
▁rst	-9118
▁ruu	-9119
▁sat	-9120
▁sct	-9121
▁set	-9122
▁sit	-9123
▁sot	-9124
▁srt	-9125
▁sst	-9126
▁sut	-9127
▁tat	-9128
▁tet	-9129
▁tit	-9130
▁tot	-9131
▁trt	-9132
▁tst	-9133
▁tuu	-9134
▁uct	-9135
▁uet	-9136
▁unt	-9137
▁uot	-9138
▁urt	-9139
▁ust	-9140
▁uuu	-9141
atc	-9142
atd	-9143
atg	-9144
atl	-9145
atn	-9146
atp	-9147
ats	-9148
▁adu	-9149
▁cdu	-9150
▁ddu	-9151
▁edu	-9152
▁gdu	-9153
▁ldu	-9154
▁mdu	-9155
▁ndu	-9156
▁odu	-9157
▁pdu	-9158
▁rdu	-9159
▁sdu	-9160
▁tdu	-9161
▁udu	-9162
iaa	-9163
iae	-9164
iai	-9165
iao	-9166
iap	-9167
▁aeu	-9168
▁aiu	-9169
▁cnu	-9170
▁dnu	-9171
▁eeu	-9172
▁eiu	-9173
▁geu	-9174
▁giu	-9175
▁gnu	-9176
▁ieu	-9177
▁iiu	-9178
▁lnu	-9179
▁mnu	-9180
▁niu	-9181
▁nnu	-9182
▁oeu	-9183
▁oiu	-9184
▁peu	-9185
▁pnu	-9186
▁rnu	-9187
▁snu	-9188
▁tnu	-9189
▁uiu	-9190
egc	-9191
egd	-9192
egg	-9193
egi	-9194
egl	-9195
egm	-9196
egn	-9197
egp	-9198
egr	-9199
egs	-9200
lct	-9201
lnc	-9202
lng	-9203
lnl	-9204
lnm	-9205
lnn	-9206
lnp	-9207
lnr	-9208
lnt	-9209
lnu	-9210
lrc	-9211
lrd	-9212
lrg	-9213
lrl	-9214
lrm	-9215
lrp	-9216
lrr	-9217
lrt	-9218
lsc	-9219
lsd	-9220
lsg	-9221
lsl	-9222
lsm	-9223
lsn	-9224
lsr	-9225
lss	-9226
lst	-9227
lsu	-9228
▁ani	-9229
▁aoi	-9230
▁aui	-9231
▁cai	-9232
▁cei	-9233
▁cii	-9234
▁coi	-9235
▁cui	-9236
▁dai	-9237
▁dei	-9238
▁dii	-9239
▁doi	-9240
▁eli	-9241
▁eni	-9242
▁eoi	-9243
▁esi	-9244
▁goi	-9245
▁ini	-9246
▁ioi	-9247
▁lai	-9248
▁lei	-9249
▁lii	-9250
▁loi	-9251
▁mai	-9252
▁mei	-9253
▁mii	-9254
▁moi	-9255
▁mui	-9256
▁nai	-9257
▁nei	-9258
▁noi	-9259
▁oni	-9260
▁ooi	-9261
▁opi	-9262
▁ori	-9263
▁pai	-9264
▁pii	-9265
▁poi	-9266
▁rai	-9267
▁rei	-9268
▁rii	-9269
▁roi	-9270
▁sai	-9271
▁sei	-9272
▁sii	-9273
▁soi	-9274
▁sui	-9275
▁tai	-9276
▁tei	-9277
▁tii	-9278
▁toi	-9279
▁uei	-9280
▁uli	-9281
▁uoi	-9282
▁usi	-9283
eaa	-9284
eae	-9285
eag	-9286
eai	-9287
eao	-9288
eap	-9289
eat	-9290
iii	-9291
iiu	-9292
uac	-9293
uad	-9294
uam	-9295
uan	-9296
uar	-9297
uat	-9298
uau	-9299
uda	-9300
ude	-9301
udi	-9302
udo	-9303
udr	-9304
uec	-9305
uen	-9306
uer	-9307
uga	-9308
ugo	-9309
ugu	-9310
uic	-9311
uid	-9312
uie	-9313
uig	-9314
uil	-9315
uim	-9316
uin	-9317
uio	-9318
uir	-9319
uis	-9320
uit	-9321
ula	-9322
ule	-9323
uma	-9324
ume	-9325
umi	-9326
umo	-9327
ump	-9328
uod	-9329
uol	-9330
uom	-9331
uon	-9332
uor	-9333
uos	-9334
upa	-9335
upe	-9336
upo	-9337
uri	-9338
urn	-9339
uro	-9340
urs	-9341
uru	-9342
uta	-9343
ute	-9344
uti	-9345
uto	-9346
utu	-9347
uua	-9348
uuc	-9349
uud	-9350
uue	-9351
uug	-9352
uui	-9353
uul	-9354
uum	-9355
uun	-9356
uuo	-9357
uup	-9358
uur	-9359
uus	-9360
uut	-9361
occ	-9362
ocd	-9363
ocg	-9364
ocl	-9365
ocm	-9366
ocn	-9367
ocp	-9368
ocs	-9369
oct	-9370
pay	-9371
cache	-9372
input	-9373
queue	-9374
headers	-9375
response	-9376
stack	-9377
session	-9378
connection	-9379
ogp	-9380
opp	-9381
aoa	-9382
aoe	-9383
aoi	-9384
aoo	-9385
aot	-9386
aou	-9387
eoa	-9388
eoe	-9389
eog	-9390
eoi	-9391
eoo	-9392
eop	-9393
eot	-9394
eou	-9395
sac	-9396
Pedro	-9397
batch	-9398
schema	-9399
saction	-9400
transaction	-9401
options	-9402
payload	-9403
userData	-9404
body	-9405
aaa	-9406
aae	-9407
aai	-9408
aap	-9409
aei	-9410
aep	-9411
aeu	-9412
eee	-9413
eei	-9414
eep	-9415
eeu	-9416
rrc	-9417
rrd	-9418
rrg	-9419
rrl	-9420
rrm	-9421
rrp	-9422
rrr	-9423
rrt	-9424
out	-9425
output	-9426
curs	-9427
path	-9428
ooa	-9429
ooe	-9430
ooi	-9431
ooo	-9432
oot	-9433
oou	-9434
params	-9435
▁AF	-9436
▁AN	-9437
▁AU	-9438
▁AV	-9439
▁AY	-9440
▁Aw	-9441
▁Ax	-9442
▁BN	-9443
▁BU	-9444
▁BV	-9445
▁BY	-9446
▁Bw	-9447
▁Bx	-9448
▁CF	-9449
▁CN	-9450
▁CU	-9451
▁CV	-9452
▁CY	-9453
▁Cw	-9454
▁Cx	-9455
▁DF	-9456
▁DN	-9457
▁DU	-9458
▁DV	-9459
▁DY	-9460
▁Dw	-9461
▁Dx	-9462
▁EF	-9463
▁EN	-9464
▁EU	-9465
▁EV	-9466
▁EY	-9467
▁Ew	-9468
▁Ex	-9469
▁FF	-9470
▁FN	-9471
▁FU	-9472
▁FV	-9473
▁FY	-9474
▁Fw	-9475
▁Fx	-9476
▁GF	-9477
▁GN	-9478
▁GU	-9479
▁GV	-9480
▁GY	-9481
▁Gw	-9482
▁Gx	-9483
▁HF	-9484
▁HN	-9485
▁HU	-9486
▁HV	-9487
▁HY	-9488
▁Hw	-9489
▁Hx	-9490
▁IF	-9491
▁IN	-9492
▁IU	-9493
▁IV	-9494
▁IY	-9495
▁Iw	-9496
▁Ix	-9497
▁LF	-9498
▁LN	-9499
▁LU	-9500
▁LV	-9501
▁LY	-9502
▁Lw	-9503
▁Lx	-9504
▁MF	-9505
▁MN	-9506
▁MV	-9507
▁MY	-9508
▁Mw	-9509
▁Mx	-9510
▁NF	-9511
▁NN	-9512
▁NU	-9513
▁NV	-9514
▁NY	-9515
▁Nw	-9516
▁Nx	-9517
▁OF	-9518
▁OU	-9519
▁OV	-9520
▁OY	-9521
▁Ow	-9522
▁Ox	-9523
▁PF	-9524
▁PN	-9525
▁PU	-9526
▁PV	-9527
▁PY	-9528
▁Pw	-9529
▁Px	-9530
▁RF	-9531
▁RN	-9532
▁RU	-9533
▁RV	-9534
▁RY	-9535
▁Rw	-9536
▁Rx	-9537
▁SF	-9538
▁SN	-9539
▁SU	-9540
▁SV	-9541
▁SY	-9542
▁Sw	-9543
▁Sx	-9544
▁TF	-9545
▁TN	-9546
▁TU	-9547
▁TV	-9548
▁TY	-9549
▁Tw	-9550
▁Tx	-9551
▁UF	-9552
▁UN	-9553
▁UU	-9554
▁UV	-9555
▁UY	-9556
▁Uw	-9557
▁Ux	-9558
▁VF	-9559
▁VN	-9560
▁VU	-9561
▁VV	-9562
▁VY	-9563
▁Vw	-9564
▁Vx	-9565
▁YF	-9566
▁YN	-9567
▁YU	-9568
▁YV	-9569
▁YY	-9570
▁Yw	-9571
▁Yx	-9572
▁aF	-9573
▁aN	-9574
▁aU	-9575
▁aV	-9576
▁aY	-9577
▁aw	-9578
▁ax	-9579
▁bF	-9580
▁bN	-9581
▁bU	-9582
▁bV	-9583
▁bY	-9584
▁bw	-9585
▁bx	-9586
▁cF	-9587
▁cN	-9588
▁cU	-9589
▁cV	-9590
▁cY	-9591
▁cw	-9592
▁cx	-9593
▁dF	-9594
▁dN	-9595
▁dU	-9596
▁dV	-9597
▁dY	-9598
▁dw	-9599
▁dx	-9600
▁eF	-9601
▁eN	-9602
▁eU	-9603
▁eV	-9604
▁eY	-9605
▁ew	-9606
▁fF	-9607
▁fN	-9608
▁fU	-9609
▁fV	-9610
▁fY	-9611
▁fw	-9612
▁fx	-9613
▁gF	-9614
▁gN	-9615
▁gU	-9616
▁gV	-9617
▁gY	-9618
▁gw	-9619
▁gx	-9620
▁hF	-9621
▁hN	-9622
▁hU	-9623
▁hV	-9624
▁hY	-9625
▁hw	-9626
▁hx	-9627
▁iF	-9628
▁iN	-9629
▁iU	-9630
▁iV	-9631
▁iY	-9632
▁iw	-9633
▁ix	-9634
▁jF	-9635
▁jN	-9636
▁jU	-9637
▁jV	-9638
▁jY	-9639
▁jw	-9640
▁jx	-9641
▁lF	-9642
▁lN	-9643
▁lU	-9644
▁lV	-9645
▁lY	-9646
▁lw	-9647
▁lx	-9648
▁mF	-9649
▁mN	-9650
▁mU	-9651
▁mV	-9652
▁mY	-9653
▁mw	-9654
▁mx	-9655
▁nF	-9656
▁nN	-9657
▁nU	-9658
▁nV	-9659
▁nY	-9660
▁nw	-9661
▁nx	-9662
▁oF	-9663
▁oN	-9664
▁oU	-9665
▁oV	-9666
▁oY	-9667
▁ow	-9668
▁ox	-9669
▁pF	-9670
▁pN	-9671
▁pU	-9672
▁pV	-9673
▁pY	-9674
▁pw	-9675
▁px	-9676
▁qF	-9677
▁qN	-9678
▁qU	-9679
▁qV	-9680
▁qY	-9681
▁qw	-9682
▁qx	-9683
▁rF	-9684
▁rN	-9685
▁rU	-9686
▁rV	-9687
▁rY	-9688
▁rw	-9689
▁rx	-9690
▁sF	-9691
▁sN	-9692
▁sU	-9693
▁sV	-9694
▁sY	-9695
▁sw	-9696
▁sx	-9697
▁tF	-9698
▁tN	-9699
▁tU	-9700
▁tV	-9701
▁tY	-9702
▁tx	-9703
▁uF	-9704
▁uN	-9705
▁uU	-9706
▁uV	-9707
▁uY	-9708
▁uw	-9709
▁ux	-9710
▁vF	-9711
▁vN	-9712
▁vU	-9713
▁vV	-9714
▁vY	-9715
▁vw	-9716
▁vx	-9717
▁wF	-9718
▁wN	-9719
▁wU	-9720
▁wV	-9721
▁wY	-9722
▁ww	-9723
▁wx	-9724
▁xF	-9725
▁xN	-9726
▁xU	-9727
▁xV	-9728
▁xY	-9729
▁xw	-9730
▁xx	-9731
▁yF	-9732
▁yN	-9733
▁yU	-9734
▁yV	-9735
▁yY	-9736
▁yw	-9737
▁yx	-9738
▁zF	-9739
▁zN	-9740
▁zU	-9741
▁zV	-9742
▁zY	-9743
▁zw	-9744
▁zx	-9745
▁áF	-9746
▁áN	-9747
▁áU	-9748
▁áV	-9749
▁áY	-9750
▁áw	-9751
▁áx	-9752
▁éF	-9753
▁éN	-9754
▁éU	-9755
▁éV	-9756
▁éY	-9757
▁éw	-9758
▁íF	-9759
▁íN	-9760
▁íU	-9761
▁íV	-9762
▁íY	-9763
▁íw	-9764
▁íx	-9765
▁óF	-9766
▁óN	-9767
▁óU	-9768
▁óV	-9769
▁óY	-9770
▁ów	-9771
▁óx	-9772
▁úF	-9773
▁úN	-9774
▁úU	-9775
▁úV	-9776
▁úY	-9777
▁úw	-9778
▁úx	-9779
AA	-9780
AB	-9781
AC	-9782
AE	-9783
AF	-9784
AH	-9785
AI	-9786
AL	-9787
AM	-9788
AN	-9789
AO	-9790
AR	-9791
AS	-9792
AT	-9793
AU	-9794
AV	-9795
AY	-9796
Aa	-9797
Ab	-9798
Ac	-9799
Ad	-9800
Ae	-9801
Af	-9802
Ag	-9803
Ah	-9804
Ai	-9805
Aj	-9806
Al	-9807
Am	-9808
An	-9809
Ao	-9810
Ap	-9811
Aq	-9812
Ar	-9813
As	-9814
At	-9815
Au	-9816
Av	-9817
Aw	-9818
Ax	-9819
Ay	-9820
Az	-9821
Aá	-9822
Aé	-9823
Aí	-9824
Aó	-9825
Aú	-9826
BA	-9827
BB	-9828
BC	-9829
BD	-9830
BE	-9831
BF	-9832
BG	-9833
BH	-9834
BI	-9835
BL	-9836
BM	-9837
BN	-9838
BO	-9839
BP	-9840
BR	-9841
BS	-9842
BT	-9843
BU	-9844
BV	-9845
BY	-9846
Ba	-9847
Bb	-9848
Bc	-9849
Bd	-9850
Be	-9851
Bf	-9852
Bg	-9853
Bh	-9854
Bi	-9855
Bj	-9856
Bl	-9857
Bm	-9858
Bn	-9859
Bo	-9860
Bp	-9861
Bq	-9862
Br	-9863
Bs	-9864
Bt	-9865
Bu	-9866
Bv	-9867
Bw	-9868
Bx	-9869
Bz	-9870
Bá	-9871
Bé	-9872
Bí	-9873
Bó	-9874
Bú	-9875
CA	-9876
CB	-9877
CC	-9878
CE	-9879
CF	-9880
CG	-9881
CH	-9882
CL	-9883
CM	-9884
CN	-9885
CO	-9886
CP	-9887
CR	-9888
CS	-9889
CU	-9890
CV	-9891
CY	-9892
Ca	-9893
Cb	-9894
Cc	-9895
Cd	-9896
Ce	-9897
Cf	-9898
Cg	-9899
Ch	-9900
Ci	-9901
Cj	-9902
Cl	-9903
Cm	-9904
Cn	-9905
Co	-9906
Cp	-9907
Cq	-9908
Cr	-9909
Cs	-9910
Ct	-9911
Cv	-9912
Cw	-9913
Cx	-9914
Cy	-9915
Cz	-9916
Cá	-9917
Cé	-9918
Cí	-9919
Có	-9920
Cú	-9921
DA	-9922
DC	-9923
DD	-9924
DF	-9925
DG	-9926
DH	-9927
DI	-9928
DL	-9929
DM	-9930
DN	-9931
DO	-9932
DP	-9933
DR	-9934
DS	-9935
DT	-9936
DU	-9937
DV	-9938
DY	-9939
Da	-9940
Db	-9941
Dc	-9942
Dd	-9943
Df	-9944
Dg	-9945
Dh	-9946
Di	-9947
Dj	-9948
Dl	-9949
Dm	-9950
Dn	-9951
Do	-9952
Dp	-9953
Dq	-9954
Dr	-9955
Ds	-9956
Dt	-9957
Du	-9958
Dv	-9959
Dw	-9960
Dx	-9961
Dy	-9962
Dz	-9963
Dá	-9964
Dé	-9965
Dí	-9966
Dó	-9967
Dú	-9968
GA	-9969
GB	-9970
GC	-9971
GD	-9972
GF	-9973
GG	-9974
GH	-9975
GI	-9976
GL	-9977
GM	-9978
GN	-9979
GO	-9980
GP	-9981
GR	-9982
GS	-9983
GT	-9984
GU	-9985
GV	-9986
GY	-9987
Ga	-9988
Gb	-9989
Gc	-9990
Gd	-9991
Ge	-9992
Gf	-9993
Gg	-9994
Gh	-9995
Gi	-9996
Gj	-9997
Gl	-9998
Gm	-9999
Gn	-10000
Go	-10001
Gp	-10002
Gq	-10003
Gr	-10004
Gs	-10005
Gt	-10006
Gu	-10007
Gv	-10008
Gw	-10009
Gx	-10010
Gy	-10011
Gz	-10012
Gá	-10013
Gé	-10014
Gí	-10015
Gó	-10016
Gú	-10017
HA	-10018
HB	-10019
HC	-10020
HD	-10021
HE	-10022
HF	-10023
HG	-10024
HH	-10025
HI	-10026
HL	-10027
HM	-10028
HN	-10029
HO	-10030
HP	-10031
HR	-10032
HT	-10033
HU	-10034
HV	-10035
HY	-10036
Ha	-10037
Hb	-10038
Hc	-10039
Hd	-10040
He	-10041
Hf	-10042
Hg	-10043
Hh	-10044
Hi	-10045
Hj	-10046
Hl	-10047
Hm	-10048
Hn	-10049
Ho	-10050
Hp	-10051
Hq	-10052
Hr	-10053
Hs	-10054
Ht	-10055
Hu	-10056
Hv	-10057
Hw	-10058
Hx	-10059
Hy	-10060
Hz	-10061
Há	-10062
Hé	-10063
Hí	-10064
Hó	-10065
Hú	-10066
IA	-10067
IB	-10068
IC	-10069
ID	-10070
IF	-10071
IG	-10072
IH	-10073
II	-10074
IL	-10075
IM	-10076
IN	-10077
IP	-10078
IR	-10079
IT	-10080
IU	-10081
IV	-10082
IY	-10083
Ia	-10084
Ib	-10085
Ic	-10086
Id	-10087
Ie	-10088
If	-10089
Ig	-10090
Ih	-10091
Ii	-10092
Ij	-10093
Il	-10094
Im	-10095
In	-10096
Io	-10097
Ip	-10098
Iq	-10099
Ir	-10100
Is	-10101
It	-10102
Iu	-10103
Iv	-10104
Iw	-10105
Ix	-10106
Iy	-10107
Iz	-10108
Iá	-10109
Ié	-10110
Ií	-10111
Ió	-10112
Iú	-10113
MA	-10114
MC	-10115
MD	-10116
ME	-10117
MF	-10118
MG	-10119
MH	-10120
MI	-10121
ML	-10122
MM	-10123
MN	-10124
MO	-10125
MR	-10126
MS	-10127
MT	-10128
MU	-10129
MV	-10130
MY	-10131
Ma	-10132
Mb	-10133
Mc	-10134
Md	-10135
Me	-10136
Mf	-10137
Mg	-10138
Mh	-10139
Mi	-10140
Mj	-10141
Ml	-10142
Mm	-10143
Mn	-10144
Mo	-10145
Mp	-10146
Mq	-10147
Mr	-10148
Ms	-10149
Mt	-10150
Mu	-10151
Mv	-10152
Mw	-10153
Mx	-10154
My	-10155
Mz	-10156
Má	-10157
Mé	-10158
Mí	-10159
Mó	-10160
Mú	-10161
PA	-10162
PB	-10163
PC	-10164
PD	-10165
PE	-10166
PF	-10167
PG	-10168
PH	-10169
PI	-10170
PL	-10171
PM	-10172
PN	-10173
PO	-10174
PP	-10175
PR	-10176
PS	-10177
PT	-10178
PU	-10179
PV	-10180
PY	-10181
Pa	-10182
Pb	-10183
Pc	-10184
Pd	-10185
Pe	-10186
Pf	-10187
Pg	-10188
Ph	-10189
Pi	-10190
Pj	-10191
Pl	-10192
Pm	-10193
Pn	-10194
Pp	-10195
Pq	-10196
Pr	-10197
Ps	-10198
Pt	-10199
Pu	-10200
Pv	-10201
Pw	-10202
Px	-10203
Py	-10204
Pz	-10205
Pá	-10206
Pé	-10207
Pí	-10208
Pó	-10209
Pú	-10210
RA	-10211
RB	-10212
RC	-10213
RD	-10214
RF	-10215
RG	-10216
RH	-10217
RI	-10218
RL	-10219
RM	-10220
RN	-10221
RO	-10222
RP	-10223
RR	-10224
RS	-10225
RT	-10226
RU	-10227
RV	-10228
RY	-10229
Ra	-10230
Rb	-10231
Rc	-10232
Rd	-10233
Re	-10234
Rf	-10235
Rg	-10236
Rh	-10237
Ri	-10238
Rj	-10239
Rl	-10240
Rm	-10241
Rn	-10242
Ro	-10243
Rp	-10244
Rq	-10245
Rr	-10246
Rs	-10247
Rt	-10248
Ru	-10249
Rv	-10250
Rw	-10251
Rx	-10252
Ry	-10253
Rz	-10254
Rá	-10255
Ré	-10256
Rí	-10257
Ró	-10258
Rú	-10259
TA	-10260
TB	-10261
TC	-10262
TD	-10263
TE	-10264
TF	-10265
TG	-10266
TI	-10267
TL	-10268
TM	-10269
TN	-10270
TO	-10271
TP	-10272
TR	-10273
TS	-10274
TT	-10275
TV	-10276
TY	-10277
Ta	-10278
Tb	-10279
Tc	-10280
Td	-10281
Te	-10282
Tf	-10283
Tg	-10284
Th	-10285
Ti	-10286
Tj	-10287
Tl	-10288
Tm	-10289
Tn	-10290
To	-10291
Tp	-10292
Tq	-10293
Tr	-10294
Ts	-10295
Tt	-10296
Tu	-10297
Tv	-10298
Tw	-10299
Tx	-10300
Ty	-10301
Tz	-10302
Tá	-10303
Té	-10304
Tí	-10305
Tó	-10306
Tú	-10307
qA	-10308
qB	-10309
qC	-10310
qD	-10311
qE	-10312
qF	-10313
qG	-10314
qH	-10315
qI	-10316
qL	-10317
qM	-10318
qN	-10319
qO	-10320
qP	-10321
qR	-10322
qS	-10323
qT	-10324
qU	-10325
qV	-10326
qY	-10327
qa	-10328
qb	-10329
qc	-10330
qd	-10331
qe	-10332
qf	-10333
qg	-10334
qh	-10335
qi	-10336
qj	-10337
ql	-10338
qm	-10339
qn	-10340
qo	-10341
qp	-10342
qq	-10343
qr	-10344
qs	-10345
qt	-10346
qv	-10347
qw	-10348
qx	-10349
qy	-10350
qz	-10351
qá	-10352
qé	-10353
qí	-10354
qó	-10355
qú	-10356
Ana	-10357
▁ON	-10358
token	-10359
stream	-10360
LA	-10361
LB	-10362
LC	-10363
LD	-10364
LE	-10365
LF	-10366
LG	-10367
LH	-10368
LL	-10369
LM	-10370
LN	-10371
LO	-10372
LP	-10373
LR	-10374
LS	-10375
LT	-10376
LV	-10377
LY	-10378
La	-10379
Lb	-10380
Lc	-10381
Ld	-10382
Le	-10383
Lf	-10384
Lg	-10385
Lh	-10386
Li	-10387
Lj	-10388
Ll	-10389
Lm	-10390
Ln	-10391
Lo	-10392
Lp	-10393
Lq	-10394
Lr	-10395
Ls	-10396
Lt	-10397
Lu	-10398
Lv	-10399
Lw	-10400
Lx	-10401
Ly	-10402
Lz	-10403
Lá	-10404
Lé	-10405
Lí	-10406
Ló	-10407
Lú	-10408
OA	-10409
OB	-10410
OC	-10411
OE	-10412
OF	-10413
OG	-10414
OH	-10415
OI	-10416
OL	-10417
OM	-10418
OO	-10419
OP	-10420
OT	-10421
OU	-10422
OV	-10423
OY	-10424
Oa	-10425
Ob	-10426
Oc	-10427
Od	-10428
Oe	-10429
Of	-10430
Og	-10431
Oh	-10432
Oi	-10433
Oj	-10434
Ol	-10435
Om	-10436
On	-10437
Oo	-10438
Op	-10439
Oq	-10440
Or	-10441
Os	-10442
Ot	-10443
Ou	-10444
Ov	-10445
Ow	-10446
Ox	-10447
Oy	-10448
Oz	-10449
Oá	-10450
Oé	-10451
Oí	-10452
Oó	-10453
Oú	-10454
SA	-10455
SB	-10456
SC	-10457
SD	-10458
SF	-10459
SG	-10460
SH	-10461
SI	-10462
SL	-10463
SM	-10464
SN	-10465
SP	-10466
SR	-10467
SS	-10468
ST	-10469
SU	-10470
SV	-10471
SY	-10472
Sa	-10473
Sb	-10474
Sc	-10475
Sd	-10476
Se	-10477
Sf	-10478
Sg	-10479
Sh	-10480
Si	-10481
Sj	-10482
Sl	-10483
Sm	-10484
Sn	-10485
So	-10486
Sp	-10487
Sq	-10488
Sr	-10489
Ss	-10490
St	-10491
Su	-10492
Sv	-10493
Sw	-10494
Sx	-10495
Sy	-10496
Sz	-10497
Sá	-10498
Sé	-10499
Sí	-10500
Só	-10501
Sú	-10502
zA	-10503
zB	-10504
zC	-10505
zD	-10506
zE	-10507
zF	-10508
zG	-10509
zH	-10510
zI	-10511
zL	-10512
zM	-10513
zN	-10514
zO	-10515
zP	-10516
zR	-10517
zS	-10518
zT	-10519
zU	-10520
zV	-10521
zY	-10522
zb	-10523
zc	-10524
zd	-10525
zf	-10526
zg	-10527
zh	-10528
zi	-10529
zj	-10530
zl	-10531
zm	-10532
zn	-10533
zo	-10534
zp	-10535
zq	-10536
zr	-10537
zs	-10538
zt	-10539
zu	-10540
zv	-10541
zw	-10542
zx	-10543
zy	-10544
zz	-10545
zá	-10546
zé	-10547
zí	-10548
zó	-10549
zú	-10550
EA	-10551
EB	-10552
EC	-10553
EE	-10554
EF	-10555
EG	-10556
EH	-10557
EI	-10558
EL	-10559
EM	-10560
EN	-10561
EO	-10562
EP	-10563
ER	-10564
ES	-10565
ET	-10566
EU	-10567
EV	-10568
EY	-10569
Ea	-10570
Eb	-10571
Ec	-10572
Ed	-10573
Ee	-10574
Ef	-10575
Eg	-10576
Eh	-10577
Ei	-10578
Ej	-10579
El	-10580
Em	-10581
Eo	-10582
Ep	-10583
Eq	-10584
Er	-10585
Et	-10586
Eu	-10587
Ev	-10588
Ew	-10589
Ey	-10590
Ez	-10591
Eá	-10592
Eé	-10593
Eí	-10594
Eó	-10595
Eú	-10596
jA	-10597
jB	-10598
jC	-10599
jD	-10600
jE	-10601
jF	-10602
jG	-10603
jH	-10604
jI	-10605
jL	-10606
jM	-10607
jN	-10608
jO	-10609
jP	-10610
jR	-10611
jS	-10612
jT	-10613
jU	-10614
jV	-10615
jY	-10616
jb	-10617
jc	-10618
jd	-10619
jf	-10620
jg	-10621
jh	-10622
ji	-10623
jj	-10624
jl	-10625
jm	-10626
jn	-10627
jp	-10628
jq	-10629
jr	-10630
js	-10631
jt	-10632
ju	-10633
jv	-10634
jw	-10635
jx	-10636
jy	-10637
jz	-10638
já	-10639
jé	-10640
jí	-10641
jó	-10642
jú	-10643
query	-10644
buffer	-10645
nnc	-10646
nng	-10647
nnl	-10648
nnm	-10649
nnn	-10650
nnp	-10651
nnr	-10652
nnu	-10653
nrc	-10654
nrd	-10655
nrg	-10656
nrl	-10657
nrm	-10658
nrp	-10659
nrr	-10660
nrt	-10661
gb	-10662
gf	-10663
gh	-10664
gv	-10665
gy	-10666
gá	-10667
gé	-10668
gí	-10669
gó	-10670
gú	-10671
mf	-10672
mh	-10673
mv	-10674
my	-10675
má	-10676
mé	-10677
mí	-10678
mó	-10679
mú	-10680
▁ze	-10681
rf	-10682
rh	-10683
rv	-10684
ry	-10685
rá	-10686
ré	-10687
rí	-10688
ró	-10689
rú	-10690
db	-10691
df	-10692
dh	-10693
dv	-10694
dy	-10695
dá	-10696
dé	-10697
dí	-10698
dó	-10699
dú	-10700
fig	-10701
▁za	-10702
config	-10703
cursor	-10704
lb	-10705
lh	-10706
lv	-10707
ly	-10708
lá	-10709
lé	-10710
lí	-10711
ló	-10712
lú	-10713
af	-10714
ah	-10715
aá	-10716
aé	-10717
aí	-10718
aó	-10719
aú	-10720
ob	-10721
of	-10722
oh	-10723
ov	-10724
oy	-10725
oá	-10726
oé	-10727
oí	-10728
oó	-10729
oú	-10730
sb	-10731
sf	-10732
sh	-10733
sv	-10734
sy	-10735
sá	-10736
sé	-10737
sí	-10738
só	-10739
sú	-10740
eb	-10741
eh	-10742
ev	-10743
ey	-10744
eá	-10745
eé	-10746
eí	-10747
eó	-10748
eú	-10749
Mar	-10750
snc	-10751
sng	-10752
snl	-10753
snm	-10754
snp	-10755
snu	-10756
ssc	-10757
ssd	-10758
ssg	-10759
ssl	-10760
ssm	-10761
ssn	-10762
ssr	-10763
sss	-10764
sst	-10765
ssu	-10766
▁Bn	-10767
▁Cn	-10768
▁Dn	-10769
▁Fn	-10770
▁Gn	-10771
▁Hn	-10772
▁Ln	-10773
▁Mn	-10774
▁Nn	-10775
▁On	-10776
▁Pn	-10777
▁Rn	-10778
▁Sn	-10779
▁Tn	-10780
▁Vn	-10781
▁Yn	-10782
▁jn	-10783
▁qn	-10784
▁wn	-10785
▁xn	-10786
▁zn	-10787
María	-10788
src	-10789
srd	-10790
srg	-10791
srl	-10792
srm	-10793
srp	-10794
srt	-10795
▁Gc	-10796
▁Hc	-10797
▁Ic	-10798
▁Lc	-10799
▁Mc	-10800
▁Nc	-10801
▁Oc	-10802
▁Pc	-10803
▁Rc	-10804
▁Vc	-10805
▁jc	-10806
▁qc	-10807
▁wc	-10808
▁xc	-10809
▁zc	-10810
Car	-10811
Carlos	-10812
parseJSON	-10813
▁Ab	-10814
▁Af	-10815
▁Ag	-10816
▁Am	-10817
▁Ao	-10818
▁Ap	-10819
▁Ar	-10820
▁At	-10821
▁Au	-10822
▁Av	-10823
▁Ay	-10824
▁Aá	-10825
▁Aé	-10826
▁Aí	-10827
▁Aó	-10828
▁Aú	-10829
▁Bb	-10830
▁Bd	-10831
▁Bf	-10832
▁Bg	-10833
▁Bh	-10834
▁Bl	-10835
▁Bm	-10836
▁Bo	-10837
▁Bp	-10838
▁Br	-10839
▁Bt	-10840
▁Bu	-10841
▁Bv	-10842
▁By	-10843
▁Bá	-10844
▁Bé	-10845
▁Bí	-10846
▁Bó	-10847
▁Bú	-10848
▁Cb	-10849
▁Cd	-10850
▁Cf	-10851
▁Cg	-10852
▁Ch	-10853
▁Cl	-10854
▁Cm	-10855
▁Cp	-10856
▁Cr	-10857
▁Ct	-10858
▁Cu	-10859
▁Cv	-10860
▁Cy	-10861
▁Cá	-10862
▁Cé	-10863
▁Cí	-10864
▁Có	-10865
▁Cú	-10866
▁Db	-10867
▁Dd	-10868
▁Df	-10869
▁Dg	-10870
▁Dh	-10871
▁Dl	-10872
▁Dm	-10873
▁Do	-10874
▁Dp	-10875
▁Dr	-10876
▁Dt	-10877
▁Du	-10878
▁Dv	-10879
▁Dy	-10880
▁Dá	-10881
▁Dé	-10882
▁Dí	-10883
▁Dó	-10884
▁Dú	-10885
▁Eb	-10886
▁Ed	-10887
▁Ef	-10888
▁Eg	-10889
▁Eh	-10890
▁Em	-10891
▁Eo	-10892
▁Ep	-10893
▁Er	-10894
▁Et	-10895
▁Eu	-10896
▁Ev	-10897
▁Ey	-10898
▁Eá	-10899
▁Eé	-10900
▁Eí	-10901
▁Eó	-10902
▁Eú	-10903
▁Fb	-10904
▁Fd	-10905
▁Ff	-10906
▁Fg	-10907
▁Fh	-10908
▁Fl	-10909
▁Fm	-10910
▁Fo	-10911
▁Fp	-10912
▁Fr	-10913
▁Ft	-10914
▁Fu	-10915
▁Fv	-10916
▁Fy	-10917
▁Fá	-10918
▁Fé	-10919
▁Fí	-10920
▁Fó	-10921
▁Fú	-10922
▁Gb	-10923
▁Gd	-10924
▁Gf	-10925
▁Gg	-10926
▁Gh	-10927
▁Gl	-10928
▁Gm	-10929
▁Go	-10930
▁Gp	-10931
▁Gr	-10932
▁Gt	-10933
▁Gu	-10934
▁Gv	-10935
▁Gy	-10936
▁Gá	-10937
▁Gé	-10938
▁Gí	-10939
▁Gó	-10940
▁Gú	-10941
▁Hb	-10942
▁Hd	-10943
▁Hf	-10944
▁Hg	-10945
▁Hh	-10946
▁Hl	-10947
▁Hm	-10948
▁Ho	-10949
▁Hp	-10950
▁Hr	-10951
▁Ht	-10952
▁Hu	-10953
▁Hv	-10954
▁Hy	-10955
▁Há	-10956
▁Hé	-10957
▁Hí	-10958
▁Hó	-10959
▁Hú	-10960
▁Ib	-10961
▁Id	-10962
▁If	-10963
▁Ig	-10964
▁Ih	-10965
▁Il	-10966
▁Im	-10967
▁Io	-10968
▁Ip	-10969
▁Ir	-10970
▁It	-10971
▁Iu	-10972
▁Iv	-10973
▁Iy	-10974
▁Iá	-10975
▁Ié	-10976
▁Ií	-10977
▁Ió	-10978
▁Iú	-10979
▁Lb	-10980
▁Ld	-10981
▁Lf	-10982
▁Lg	-10983
▁Lh	-10984
▁Ll	-10985
▁Lm	-10986
▁Lp	-10987
▁Lr	-10988
▁Lt	-10989
▁Lu	-10990
▁Lv	-10991
▁Ly	-10992
▁Lá	-10993
▁Lé	-10994
▁Lí	-10995
▁Ló	-10996
▁Lú	-10997
▁Mb	-10998
▁Md	-10999
▁Mf	-11000
▁Mg	-11001
▁Mh	-11002
▁Ml	-11003
▁Mm	-11004
▁Mo	-11005
▁Mp	-11006
▁Mr	-11007
▁Mt	-11008
▁Mu	-11009
▁Mv	-11010
▁My	-11011
▁Má	-11012
▁Mé	-11013
▁Mí	-11014
▁Mó	-11015
▁Mú	-11016
▁Nb	-11017
▁Nd	-11018
▁Nf	-11019
▁Ng	-11020
▁Nh	-11021
▁Nl	-11022
▁Nm	-11023
▁Np	-11024
▁Nr	-11025
▁Nt	-11026
▁Nu	-11027
▁Nv	-11028
▁Ny	-11029
▁Ná	-11030
▁Né	-11031
▁Ní	-11032
▁Nó	-11033
▁Nú	-11034
▁Ob	-11035
▁Od	-11036
▁Of	-11037
▁Og	-11038
▁Oh	-11039
▁Ol	-11040
▁Om	-11041
▁Oo	-11042
▁Op	-11043
▁Ot	-11044
▁Ou	-11045
▁Ov	-11046
▁Oy	-11047
▁Oá	-11048
▁Oé	-11049
▁Oí	-11050
▁Oó	-11051
▁Oú	-11052
▁Pb	-11053
▁Pd	-11054
▁Pf	-11055
▁Pg	-11056
▁Ph	-11057
▁Pl	-11058
▁Pm	-11059
▁Po	-11060
▁Pp	-11061
▁Pr	-11062
▁Pt	-11063
▁Pu	-11064
▁Pv	-11065
▁Py	-11066
▁Pá	-11067
▁Pé	-11068
▁Pí	-11069
▁Pó	-11070
▁Pú	-11071
▁Rb	-11072
▁Rd	-11073
▁Rf	-11074
▁Rg	-11075
▁Rh	-11076
▁Rl	-11077
▁Rm	-11078
▁Rp	-11079
▁Rr	-11080
▁Rt	-11081
▁Ru	-11082
▁Rv	-11083
▁Ry	-11084
▁Rá	-11085
▁Ré	-11086
▁Rí	-11087
▁Ró	-11088
▁Rú	-11089
▁Sb	-11090
▁Sd	-11091
▁Sf	-11092
▁Sg	-11093
▁Sh	-11094
▁Sl	-11095
▁Sm	-11096
▁Sp	-11097
▁Sr	-11098
▁St	-11099
▁Sv	-11100
▁Sy	-11101
▁Sá	-11102
▁Sé	-11103
▁Só	-11104
▁Sú	-11105
▁Tb	-11106
▁Td	-11107
▁Tf	-11108
▁Tg	-11109
▁Th	-11110
▁Tl	-11111
▁Tm	-11112
▁Tp	-11113
▁Tr	-11114
▁Tt	-11115
▁Tu	-11116
▁Tv	-11117
▁Tá	-11118
▁Té	-11119
▁Tí	-11120
▁Tó	-11121
▁Tú	-11122
▁Ub	-11123
▁Ud	-11124
▁Uf	-11125
▁Ug	-11126
▁Uh	-11127
▁Ul	-11128
▁Um	-11129
▁Uo	-11130
▁Up	-11131
▁Ur	-11132
▁Ut	-11133
▁Uu	-11134
▁Uv	-11135
▁Uy	-11136
▁Uá	-11137
▁Ué	-11138
▁Uí	-11139
▁Uó	-11140
▁Uú	-11141
▁Vb	-11142
▁Vd	-11143
▁Vf	-11144
▁Vg	-11145
▁Vh	-11146
▁Vl	-11147
▁Vm	-11148
▁Vo	-11149
▁Vp	-11150
▁Vr	-11151
▁Vt	-11152
▁Vu	-11153
▁Vv	-11154
▁Vy	-11155
▁Vá	-11156
▁Vé	-11157
▁Ví	-11158
▁Vó	-11159
▁Vú	-11160
▁Yb	-11161
▁Yd	-11162
▁Yf	-11163
▁Yg	-11164
▁Yh	-11165
▁Yl	-11166
▁Ym	-11167
▁Yo	-11168
▁Yp	-11169
▁Yr	-11170
▁Yt	-11171
▁Yu	-11172
▁Yv	-11173
▁Yy	-11174
▁Yá	-11175
▁Yé	-11176
▁Yí	-11177
▁Yó	-11178
▁Yú	-11179
▁jb	-11180
▁jd	-11181
▁jf	-11182
▁jg	-11183
▁jh	-11184
▁jl	-11185
▁jm	-11186
▁jo	-11187
▁jp	-11188
▁jr	-11189
▁jt	-11190
▁ju	-11191
▁jv	-11192
▁jy	-11193
▁já	-11194
▁jé	-11195
▁jí	-11196
▁jó	-11197
▁jú	-11198
▁qb	-11199
▁qd	-11200
▁qf	-11201
▁qg	-11202
▁qh	-11203
▁ql	-11204
▁qm	-11205
▁qo	-11206
▁qp	-11207
▁qr	-11208
▁qt	-11209
▁qv	-11210
▁qy	-11211
▁qá	-11212
▁qé	-11213
▁qí	-11214
▁qó	-11215
▁qú	-11216
▁wb	-11217
▁wd	-11218
▁wf	-11219
▁wg	-11220
▁wh	-11221
▁wl	-11222
▁wm	-11223
▁wo	-11224
▁wp	-11225
▁wr	-11226
▁wt	-11227
▁wu	-11228
▁wv	-11229
▁wy	-11230
▁wá	-11231
▁wé	-11232
▁wí	-11233
▁wó	-11234
▁wú	-11235
▁xb	-11236
▁xd	-11237
▁xf	-11238
▁xg	-11239
▁xh	-11240
▁xl	-11241
▁xm	-11242
▁xo	-11243
▁xp	-11244
▁xr	-11245
▁xt	-11246
▁xu	-11247
▁xv	-11248
▁xy	-11249
▁xá	-11250
▁xé	-11251
▁xí	-11252
▁xó	-11253
▁xú	-11254
▁zb	-11255
▁zd	-11256
▁zf	-11257
▁zg	-11258
▁zh	-11259
▁zl	-11260
▁zm	-11261
▁zo	-11262
▁zp	-11263
▁zr	-11264
▁zt	-11265
▁zu	-11266
▁zv	-11267
▁zy	-11268
▁zá	-11269
▁zé	-11270
▁zí	-11271
▁zó	-11272
▁zú	-11273
▁aay	-11274
▁afy	-11275
▁aón	-11276
▁bay	-11277
▁bfy	-11278
▁bón	-11279
▁cfy	-11280
▁cón	-11281
▁day	-11282
▁dfy	-11283
▁eay	-11284
▁efy	-11285
▁eón	-11286
▁fay	-11287
▁ffy	-11288
▁fón	-11289
▁gay	-11290
▁gfy	-11291
▁gón	-11292
▁hfy	-11293
▁hón	-11294
▁iay	-11295
▁ify	-11296
▁ión	-11297
▁lfy	-11298
▁lón	-11299
▁mfy	-11300
▁món	-11301
▁nay	-11302
▁nfy	-11303
▁nón	-11304
▁oay	-11305
▁ofy	-11306
▁oón	-11307
▁pfy	-11308
▁pón	-11309
▁rfy	-11310
▁rón	-11311
▁say	-11312
▁sfy	-11313
▁són	-11314
▁tfy	-11315
▁tón	-11316
▁uay	-11317
▁ufy	-11318
▁uón	-11319
▁vay	-11320
▁vfy	-11321
▁vón	-11322
▁yay	-11323
▁yfy	-11324
▁yón	-11325
▁áay	-11326
▁áfy	-11327
▁áón	-11328
▁éay	-11329
▁éfy	-11330
▁éón	-11331
▁ífy	-11332
▁íón	-11333
▁óay	-11334
▁ófy	-11335
▁óón	-11336
▁úay	-11337
▁úfy	-11338
▁úón	-11339
bia	-11340
bib	-11341
bid	-11342
bif	-11343
bih	-11344
bii	-11345
bil	-11346
bim	-11347
bio	-11348
bip	-11349
bit	-11350
biu	-11351
biv	-11352
biy	-11353
biá	-11354
bié	-11355
bií	-11356
biú	-11357
faa	-11358
fae	-11359
faf	-11360
fag	-11361
fah	-11362
fai	-11363
fao	-11364
fap	-11365
fav	-11366
faá	-11367
faé	-11368
faí	-11369
faó	-11370
faú	-11371
foa	-11372
fob	-11373
foc	-11374
fod	-11375
foe	-11376
fof	-11377
fog	-11378
foh	-11379
foi	-11380
fom	-11381
foo	-11382
fop	-11383
fot	-11384
fou	-11385
fov	-11386
foy	-11387
foá	-11388
foé	-11389
foí	-11390
foó	-11391
foú	-11392
haa	-11393
hae	-11394
haf	-11395
hag	-11396
hah	-11397
hai	-11398
hao	-11399
hap	-11400
hat	-11401
hau	-11402
hav	-11403
haá	-11404
haé	-11405
haí	-11406
haó	-11407
haú	-11408
hea	-11409
heb	-11410
hed	-11411
hee	-11412
heg	-11413
heh	-11414
hei	-11415
hem	-11416
heo	-11417
hep	-11418
het	-11419
heu	-11420
hev	-11421
hey	-11422
heá	-11423
heé	-11424
heí	-11425
heó	-11426
heú	-11427
táa	-11428
táb	-11429
tác	-11430
tád	-11431
táe	-11432
tág	-11433
táh	-11434
tái	-11435
tál	-11436
tám	-11437
tán	-11438
táo	-11439
táp	-11440
tár	-11441
tás	-11442
tát	-11443
táu	-11444
táv	-11445
táy	-11446
táá	-11447
táé	-11448
táí	-11449
táó	-11450
táú	-11451
vaa	-11452
vae	-11453
vaf	-11454
vag	-11455
vah	-11456
vai	-11457
vao	-11458
vap	-11459
vat	-11460
vau	-11461
vav	-11462
vaá	-11463
vaé	-11464
vaí	-11465
vaó	-11466
vaú	-11467
vbb	-11468
vbc	-11469
vbd	-11470
vbf	-11471
vbg	-11472
vbh	-11473
vbl	-11474
vbm	-11475
vbn	-11476
vbp	-11477
vbr	-11478
vbs	-11479
vbt	-11480
vbv	-11481
vbá	-11482
vbé	-11483
vbí	-11484
vbó	-11485
vbú	-11486
vcb	-11487
vcf	-11488
vcv	-11489
vcy	-11490
vcá	-11491
vcé	-11492
vcí	-11493
vcó	-11494
vcú	-11495
vdb	-11496
vdf	-11497
vdh	-11498
vdv	-11499
vdy	-11500
vdá	-11501
vdé	-11502
vdí	-11503
vdó	-11504
vdú	-11505
vea	-11506
veb	-11507
ved	-11508
vee	-11509
vef	-11510
veg	-11511
veh	-11512
vei	-11513
vel	-11514
vem	-11515
veo	-11516
vep	-11517
vet	-11518
veu	-11519
vev	-11520
vey	-11521
veá	-11522
veé	-11523
veí	-11524
veó	-11525
veú	-11526
vfb	-11527
vfc	-11528
vfd	-11529
vfe	-11530
vfg	-11531
vfh	-11532
vfl	-11533
vfm	-11534
vfn	-11535
vfp	-11536
vfr	-11537
vfs	-11538
vfu	-11539
vfv	-11540
vfá	-11541
vfé	-11542
vfí	-11543
vfó	-11544
vfú	-11545
vgb	-11546
vgf	-11547
vgh	-11548
vgv	-11549
vgy	-11550
vgá	-11551
vgé	-11552
vgí	-11553
vgó	-11554
vgú	-11555
vhb	-11556
vhc	-11557
vhd	-11558
vhf	-11559
vhg	-11560
vhh	-11561
vhl	-11562
vhm	-11563
vhn	-11564
vhp	-11565
vhr	-11566
vhs	-11567
vht	-11568
vhv	-11569
vhá	-11570
vhí	-11571
vhú	-11572
vlb	-11573
vlh	-11574
vlv	-11575
vly	-11576
vlá	-11577
vlé	-11578
vlí	-11579
vló	-11580
vlú	-11581
vmf	-11582
vmh	-11583
vmv	-11584
vmy	-11585
vmá	-11586
vmé	-11587
vmí	-11588
vmó	-11589
vmú	-11590
vnb	-11591
vnf	-11592
vnh	-11593
vnv	-11594
vny	-11595
vná	-11596
vné	-11597
vní	-11598
vnó	-11599
vnú	-11600
voa	-11601
vob	-11602
voc	-11603
vod	-11604
voe	-11605
vof	-11606
vog	-11607
voh	-11608
voi	-11609
vom	-11610
voo	-11611
vop	-11612
vot	-11613
vou	-11614
vov	-11615
voy	-11616
voá	-11617
voé	-11618
voí	-11619
voó	-11620
voú	-11621
vpb	-11622
vpf	-11623
vpv	-11624
vpy	-11625
vpá	-11626
vpé	-11627
vpí	-11628
vpó	-11629
vpú	-11630
vrf	-11631
vrh	-11632
vrv	-11633
vry	-11634
vrá	-11635
vré	-11636
vrí	-11637
vró	-11638
vrú	-11639
vsb	-11640
vsf	-11641
vsh	-11642
vsv	-11643
vsy	-11644
vsá	-11645
vsé	-11646
vsí	-11647
vsó	-11648
vsú	-11649
vtb	-11650
vtf	-11651
vtv	-11652
vté	-11653
vtí	-11654
vtó	-11655
vtú	-11656
vub	-11657
vuf	-11658
vuh	-11659
vuv	-11660
vuy	-11661
vuá	-11662
vué	-11663
vuí	-11664
vuó	-11665
vuú	-11666
vvb	-11667
vvc	-11668
vvd	-11669
vvf	-11670
vvg	-11671
vvh	-11672
vvl	-11673
vvm	-11674
vvn	-11675
vvp	-11676
vvr	-11677
vvs	-11678
vvt	-11679
vvu	-11680
vvv	-11681
vvá	-11682
vvé	-11683
vví	-11684
vvó	-11685
vvú	-11686
vya	-11687
vyb	-11688
vyc	-11689
vyd	-11690
vyf	-11691
vyg	-11692
vyh	-11693
vyi	-11694
vyl	-11695
vym	-11696
vyp	-11697
vyr	-11698
vys	-11699
vyt	-11700
vyu	-11701
vyv	-11702
vyy	-11703
vyá	-11704
vyé	-11705
vyí	-11706
vyó	-11707
vyú	-11708
váa	-11709
vác	-11710
vád	-11711
váe	-11712
vág	-11713
vái	-11714
váo	-11715
váp	-11716
vár	-11717
váu	-11718
váé	-11719
váí	-11720
váó	-11721
váú	-11722
yaf	-11723
yah	-11724
yaá	-11725
yaé	-11726
yaí	-11727
yaó	-11728
yaú	-11729
ybb	-11730
ybc	-11731
ybd	-11732
ybf	-11733
ybg	-11734
ybh	-11735
ybl	-11736
ybm	-11737
ybn	-11738
ybp	-11739
ybr	-11740
ybs	-11741
ybt	-11742
ybv	-11743
ybá	-11744
ybé	-11745
ybí	-11746
ybó	-11747
ybú	-11748
ycb	-11749
ycf	-11750
ycv	-11751
ycy	-11752
ycá	-11753
ycé	-11754
ycí	-11755
ycó	-11756
ycú	-11757
ydb	-11758
ydf	-11759
ydh	-11760
ydv	-11761
ydy	-11762
ydá	-11763
ydé	-11764
ydí	-11765
ydó	-11766
ydú	-11767
yeb	-11768
yee	-11769
yef	-11770
yeh	-11771
yei	-11772
yeo	-11773
yep	-11774
yeu	-11775
yev	-11776
yey	-11777
yeá	-11778
yeé	-11779
yeí	-11780
yeó	-11781
yeú	-11782
yfc	-11783
yfd	-11784
yfe	-11785
yfg	-11786
yfl	-11787
yfm	-11788
yfn	-11789
yfp	-11790
yfr	-11791
yfs	-11792
yfu	-11793
yfé	-11794
yfí	-11795
yfó	-11796
yfú	-11797
ygb	-11798
ygf	-11799
ygh	-11800
ygv	-11801
ygy	-11802
ygá	-11803
ygé	-11804
ygí	-11805
ygó	-11806
ygú	-11807
yhc	-11808
yhd	-11809
yhf	-11810
yhg	-11811
yhh	-11812
yhl	-11813
yhm	-11814
yhn	-11815
yhp	-11816
yhr	-11817
yhs	-11818
yht	-11819
yhv	-11820
yhá	-11821
yhí	-11822
yhú	-11823
yif	-11824
yih	-11825
yiy	-11826
yiá	-11827
yié	-11828
yií	-11829
yiú	-11830
ylb	-11831
ylh	-11832
ylv	-11833
yly	-11834
ylá	-11835
ylé	-11836
ylí	-11837
yló	-11838
ylú	-11839
ymf	-11840
ymh	-11841
ymv	-11842
ymy	-11843
ymá	-11844
ymé	-11845
ymí	-11846
ymó	-11847
ymú	-11848
yoa	-11849
yob	-11850
yoe	-11851
yof	-11852
yoh	-11853
yoi	-11854
yoo	-11855
yot	-11856
you	-11857
yov	-11858
yoy	-11859
yoá	-11860
yoé	-11861
yoí	-11862
yoó	-11863
yoú	-11864
ypb	-11865
ypf	-11866
ypv	-11867
ypy	-11868
ypá	-11869
ypé	-11870
ypí	-11871
ypó	-11872
ypú	-11873
yrf	-11874
yrh	-11875
yrv	-11876
yry	-11877
yrá	-11878
yré	-11879
yrí	-11880
yró	-11881
yrú	-11882
ysb	-11883
ysf	-11884
ysh	-11885
ysv	-11886
ysy	-11887
ysá	-11888
ysé	-11889
ysí	-11890
ysó	-11891
ysú	-11892
ytb	-11893
ytf	-11894
ytv	-11895
yté	-11896
ytí	-11897
ytó	-11898
ytú	-11899
yub	-11900
yuf	-11901
yuh	-11902
yuv	-11903
yuy	-11904
yuá	-11905
yué	-11906
yuí	-11907
yuó	-11908
yuú	-11909
yvc	-11910
yvd	-11911
yvg	-11912
yvl	-11913
yvm	-11914
yvn	-11915
yvp	-11916
yvr	-11917
yvs	-11918
yvt	-11919
yvu	-11920
yvé	-11921
yví	-11922
yvó	-11923
yvú	-11924
yya	-11925
yyb	-11926
yyc	-11927
yyd	-11928
yyf	-11929
yyg	-11930
yyh	-11931
yyi	-11932
yyl	-11933
yym	-11934
yyp	-11935
yyr	-11936
yys	-11937
yyt	-11938
yyu	-11939
yyv	-11940
yyy	-11941
yyá	-11942
yyé	-11943
yyí	-11944
yyó	-11945
yyú	-11946
yáa	-11947
yác	-11948
yád	-11949
yáe	-11950
yág	-11951
yái	-11952
yáo	-11953
yáp	-11954
yár	-11955
yáu	-11956
yáé	-11957
yáí	-11958
yáó	-11959
yáú	-11960
álb	-11961
álc	-11962
áld	-11963
álf	-11964
álg	-11965
álh	-11966
áll	-11967
álm	-11968
áln	-11969
álp	-11970
álr	-11971
áls	-11972
ált	-11973
álv	-11974
ály	-11975
álá	-11976
álé	-11977
álí	-11978
áló	-11979
álú	-11980
ámc	-11981
ámd	-11982
ámf	-11983
ámg	-11984
ámh	-11985
áml	-11986
ámm	-11987
ámn	-11988
ámr	-11989
áms	-11990
ámt	-11991
ámu	-11992
ámv	-11993
ámy	-11994
ámá	-11995
ámé	-11996
ámí	-11997
ámó	-11998
ámú	-11999
ánb	-12000
ánc	-12001
ánd	-12002
áne	-12003
ánf	-12004
áng	-12005
ánh	-12006
áni	-12007
ánl	-12008
ánm	-12009
ánn	-12010
ánp	-12011
ánr	-12012
áns	-12013
ánt	-12014
ánu	-12015
ánv	-12016
ány	-12017
áná	-12018
áné	-12019
ání	-12020
ánó	-12021
ánú	-12022
átb	-12023
átf	-12024
átv	-12025
áty	-12026
áté	-12027
átí	-12028
átó	-12029
átú	-12030
édb	-12031
édf	-12032
édh	-12033
édv	-12034
édy	-12035
édá	-12036
édé	-12037
édí	-12038
édó	-12039
édú	-12040
éfb	-12041
éfc	-12042
éfd	-12043
éfe	-12044
éfg	-12045
éfh	-12046
éfl	-12047
éfm	-12048
éfn	-12049
éfp	-12050
éfr	-12051
éfs	-12052
éfu	-12053
éfv	-12054
éfá	-12055
éfé	-12056
éfí	-12057
éfó	-12058
éfú	-12059
énb	-12060
énc	-12061
énd	-12062
éne	-12063
énf	-12064
éng	-12065
énh	-12066
éni	-12067
énl	-12068
énm	-12069
énn	-12070
énp	-12071
énr	-12072
éns	-12073
ént	-12074
énu	-12075
énv	-12076
ény	-12077
éná	-12078
éné	-12079
éní	-12080
énó	-12081
énú	-12082
ésa	-12083
ésb	-12084
ésc	-12085
ésd	-12086
ésf	-12087
ésg	-12088
ésh	-12089
ésl	-12090
ésm	-12091
ésn	-12092
éso	-12093
ésr	-12094
éss	-12095
ést	-12096
ésu	-12097
ésv	-12098
ésy	-12099
ésá	-12100
ésé	-12101
ésí	-12102
ésó	-12103
ésú	-12104
étb	-12105
étf	-12106
étv	-12107
éty	-12108
été	-12109
étí	-12110
étó	-12111
étú	-12112
ínb	-12113
ínc	-12114
índ	-12115
íne	-12116
ínf	-12117
íng	-12118
ính	-12119
ínl	-12120
ínm	-12121
ínn	-12122
ínp	-12123
ínr	-12124
ínt	-12125
ínu	-12126
ínv	-12127
íny	-12128
íná	-12129
íné	-12130
íní	-12131
ínó	-12132
ínú	-12133
óaf	-12134
óah	-12135
óaá	-12136
óaé	-12137
óaí	-12138
óaó	-12139
óaú	-12140
óbb	-12141
óbc	-12142
óbd	-12143
óbf	-12144
óbg	-12145
óbh	-12146
óbl	-12147
óbm	-12148
óbn	-12149
óbp	-12150
óbr	-12151
óbs	-12152
óbt	-12153
óbv	-12154
óbá	-12155
óbé	-12156
óbí	-12157
óbó	-12158
óbú	-12159
ócb	-12160
ócf	-12161
ócv	-12162
ócy	-12163
ócá	-12164
ócé	-12165
ócí	-12166
ócó	-12167
ócú	-12168
óeb	-12169
óeh	-12170
óev	-12171
óey	-12172
óeá	-12173
óeé	-12174
óeí	-12175
óeó	-12176
óeú	-12177
ófb	-12178
ófc	-12179
ófd	-12180
ófe	-12181
ófg	-12182
ófh	-12183
ófl	-12184
ófm	-12185
ófn	-12186
ófp	-12187
ófr	-12188
ófs	-12189
ófu	-12190
ófv	-12191
ófá	-12192
ófé	-12193
ófí	-12194
ófó	-12195
ófú	-12196
óhb	-12197
óhc	-12198
óhd	-12199
óhf	-12200
óhg	-12201
óhh	-12202
óhl	-12203
óhm	-12204
óhn	-12205
óhp	-12206
óhr	-12207
óhs	-12208
óht	-12209
óhv	-12210
óhy	-12211
óhá	-12212
óhí	-12213
óhú	-12214
óif	-12215
óih	-12216
óiy	-12217
óiá	-12218
óié	-12219
óií	-12220
óiú	-12221
ólb	-12222
ólh	-12223
ólv	-12224
óly	-12225
ólá	-12226
ólé	-12227
ólí	-12228
óló	-12229
ólú	-12230
ómf	-12231
ómh	-12232
ómv	-12233
ómy	-12234
ómá	-12235
ómé	-12236
ómí	-12237
ómó	-12238
ómú	-12239
óob	-12240
óof	-12241
óoh	-12242
óov	-12243
óoy	-12244
óoá	-12245
óoé	-12246
óoí	-12247
óoó	-12248
óoú	-12249
ópb	-12250
ópf	-12251
ópv	-12252
ópy	-12253
ópá	-12254
ópé	-12255
ópí	-12256
ópó	-12257
ópú	-12258
ósb	-12259
ósf	-12260
ósh	-12261
ósv	-12262
ósy	-12263
ósá	-12264
ósé	-12265
ósí	-12266
ósó	-12267
ósú	-12268
ótb	-12269
ótf	-12270
ótv	-12271
óté	-12272
ótí	-12273
ótó	-12274
ótú	-12275
óub	-12276
óuf	-12277
óuh	-12278
óuv	-12279
óuy	-12280
óuá	-12281
óué	-12282
óuí	-12283
óuó	-12284
óuú	-12285
óvb	-12286
óvc	-12287
óvd	-12288
óvf	-12289
óvg	-12290
óvh	-12291
óvl	-12292
óvm	-12293
óvn	-12294
óvp	-12295
óvr	-12296
óvs	-12297
óvt	-12298
óvu	-12299
óvv	-12300
óvy	-12301
óvá	-12302
óvé	-12303
óví	-12304
óvó	-12305
óvú	-12306
óya	-12307
óyb	-12308
óyc	-12309
óyd	-12310
óyf	-12311
óyg	-12312
óyh	-12313
óyi	-12314
óyl	-12315
óym	-12316
óyp	-12317
óyr	-12318
óys	-12319
óyt	-12320
óyu	-12321
óyv	-12322
óyy	-12323
óyá	-12324
óyé	-12325
óyí	-12326
óyó	-12327
óyú	-12328
óáa	-12329
óáb	-12330
óác	-12331
óád	-12332
óáe	-12333
óáf	-12334
óág	-12335
óáh	-12336
óái	-12337
óáo	-12338
óáp	-12339
óár	-12340
óáu	-12341
óáá	-12342
óáé	-12343
óáí	-12344
óáó	-12345
óáú	-12346
óéa	-12347
óéc	-12348
óée	-12349
óég	-12350
óéi	-12351
óél	-12352
óém	-12353
óéo	-12354
óép	-12355
óéu	-12356
óéé	-12357
óéí	-12358
óéó	-12359
óéú	-12360
óóa	-12361
óóc	-12362
óóe	-12363
óói	-12364
óól	-12365
óóo	-12366
óóp	-12367
óós	-12368
óót	-12369
óóu	-12370
óóí	-12371
óóó	-12372
óúc	-12373
óúd	-12374
óúe	-12375
óúg	-12376
óúi	-12377
óúl	-12378
óúo	-12379
óúp	-12380
óúr	-12381
óút	-12382
óúu	-12383
óúé	-12384
óúí	-12385
óúó	-12386
únb	-12387
únc	-12388
únd	-12389
úne	-12390
únf	-12391
úng	-12392
únh	-12393
úni	-12394
únl	-12395
únm	-12396
únn	-12397
únp	-12398
únr	-12399
úns	-12400
únt	-12401
únu	-12402
únv	-12403
úny	-12404
úná	-12405
úné	-12406
úní	-12407
únó	-12408
únú	-12409
▁Aa	-12410
▁Ae	-12411
▁Ai	-12412
▁As	-12413
▁Ba	-12414
▁Be	-12415
▁Bi	-12416
▁Bs	-12417
▁Ca	-12418
▁Ce	-12419
▁Ci	-12420
▁Cs	-12421
▁Ds	-12422
▁Ea	-12423
▁Ee	-12424
▁Ei	-12425
▁Fa	-12426
▁Fe	-12427
▁Fi	-12428
▁Fs	-12429
▁Ga	-12430
▁Ge	-12431
▁Gi	-12432
▁Gs	-12433
▁Ha	-12434
▁He	-12435
▁Hi	-12436
▁Hs	-12437
▁Ia	-12438
▁Ie	-12439
▁Ii	-12440
▁Le	-12441
▁Li	-12442
▁Ls	-12443
▁Mi	-12444
▁Ms	-12445
▁Na	-12446
▁Ne	-12447
▁Ni	-12448
▁Ns	-12449
▁Oa	-12450
▁Oe	-12451
▁Oi	-12452
▁Os	-12453
▁Pa	-12454
▁Pe	-12455
▁Pi	-12456
▁Ps	-12457
▁Re	-12458
▁Ri	-12459
▁Rs	-12460
▁Sa	-12461
▁Ss	-12462
▁Ta	-12463
▁Ts	-12464
▁Ua	-12465
▁Ue	-12466
▁Ui	-12467
▁Us	-12468
▁Va	-12469
▁Ve	-12470
▁Vi	-12471
▁Vs	-12472
▁Ya	-12473
▁Ye	-12474
▁Yi	-12475
▁Ys	-12476
▁ja	-12477
▁je	-12478
▁ji	-12479
▁js	-12480
▁qa	-12481
▁qe	-12482
▁qi	-12483
▁qs	-12484
▁wa	-12485
▁we	-12486
▁wi	-12487
▁ws	-12488
▁xa	-12489
▁xe	-12490
▁xi	-12491
▁xs	-12492
▁zi	-12493
▁zs	-12494
▁aab	-12495
▁bab	-12496
▁bby	-12497
▁bmb	-12498
▁cab	-12499
▁cby	-12500
▁cmb	-12501
▁dab	-12502
▁dby	-12503
▁dmb	-12504
▁eab	-12505
▁eby	-12506
▁fab	-12507
▁fby	-12508
▁fmb	-12509
▁gab	-12510
▁gby	-12511
▁gmb	-12512
▁hby	-12513
▁hmb	-12514
▁iab	-12515
▁iby	-12516
▁imb	-12517
▁lby	-12518
▁lmb	-12519
▁mab	-12520
▁mby	-12521
▁mmb	-12522
▁nab	-12523
▁nby	-12524
▁nmb	-12525
▁oab	-12526
▁omb	-12527
▁pab	-12528
▁pby	-12529
▁pmb	-12530
▁rby	-12531
▁rmb	-12532
▁sby	-12533
▁smb	-12534
▁tby	-12535
▁tmb	-12536
▁uab	-12537
▁uby	-12538
▁umb	-12539
▁vab	-12540
▁vby	-12541
▁vmb	-12542
▁yab	-12543
▁yby	-12544
▁ymb	-12545
▁áab	-12546
▁áby	-12547
▁ámb	-12548
▁éab	-12549
▁éby	-12550
▁émb	-12551
▁íab	-12552
▁íby	-12553
▁ímb	-12554
▁óab	-12555
▁óby	-12556
▁ómb	-12557
▁úab	-12558
▁úby	-12559
▁úmb	-12560
bea	-12561
beb	-12562
bee	-12563
bef	-12564
beg	-12565
beh	-12566
bei	-12567
bem	-12568
beo	-12569
bep	-12570
bet	-12571
beu	-12572
bev	-12573
bey	-12574
beá	-12575
beé	-12576
beí	-12577
beó	-12578
beú	-12579
bua	-12580
bub	-12581
buf	-12582
buh	-12583
bui	-12584
bum	-12585
buo	-12586
bur	-12587
buu	-12588
buv	-12589
buy	-12590
buá	-12591
bué	-12592
buí	-12593
buó	-12594
buú	-12595
fbb	-12596
fbc	-12597
fbd	-12598
fbf	-12599
fbg	-12600
fbh	-12601
fbl	-12602
fbm	-12603
fbn	-12604
fbp	-12605
fbr	-12606
fbs	-12607
fbt	-12608
fbv	-12609
fbá	-12610
fbé	-12611
fbí	-12612
fbó	-12613
fbú	-12614
ffb	-12615
ffc	-12616
ffd	-12617
ffe	-12618
fff	-12619
ffg	-12620
ffh	-12621
ffl	-12622
ffm	-12623
ffn	-12624
ffp	-12625
ffr	-12626
ffs	-12627
ffu	-12628
ffv	-12629
ffá	-12630
ffé	-12631
ffí	-12632
ffó	-12633
ffú	-12634
fhb	-12635
fhc	-12636
fhd	-12637
fhf	-12638
fhg	-12639
fhh	-12640
fhl	-12641
fhm	-12642
fhn	-12643
fhp	-12644
fhr	-12645
fhs	-12646
fht	-12647
fhv	-12648
fhá	-12649
fhí	-12650
fhú	-12651
fib	-12652
fid	-12653
fif	-12654
fih	-12655
fii	-12656
fio	-12657
fip	-12658
fit	-12659
fiu	-12660
fiv	-12661
fiy	-12662
fiá	-12663
fié	-12664
fií	-12665
fió	-12666
fiú	-12667
ftb	-12668
ftf	-12669
ftv	-12670
fty	-12671
fté	-12672
ftí	-12673
ftó	-12674
ftú	-12675
fvc	-12676
fvd	-12677
fvg	-12678
fvl	-12679
fvm	-12680
fvn	-12681
fvp	-12682
fvr	-12683
fvs	-12684
fvt	-12685
fvu	-12686
fvá	-12687
fvé	-12688
fví	-12689
fvó	-12690
fvú	-12691
fáa	-12692
fác	-12693
fád	-12694
fáe	-12695
fág	-12696
fái	-12697
fáo	-12698
fáp	-12699
fár	-12700
fáu	-12701
fáé	-12702
fáí	-12703
fáó	-12704
fáú	-12705
hia	-12706
hib	-12707
hif	-12708
hih	-12709
hii	-12710
hip	-12711
hiu	-12712
hiv	-12713
hiy	-12714
hiá	-12715
hié	-12716
hií	-12717
hió	-12718
hiú	-12719
héa	-12720
héb	-12721
héc	-12722
héd	-12723
hée	-12724
héf	-12725
hég	-12726
héh	-12727
héi	-12728
hél	-12729
hém	-12730
héo	-12731
hép	-12732
hét	-12733
héu	-12734
hév	-12735
héy	-12736
héá	-12737
héé	-12738
héí	-12739
héó	-12740
héú	-12741
thb	-12742
thc	-12743
thd	-12744
thf	-12745
thg	-12746
thh	-12747
thl	-12748
thm	-12749
thn	-12750
thp	-12751
thr	-12752
ths	-12753
tht	-12754
thu	-12755
thv	-12756
thy	-12757
thá	-12758
thí	-12759
thó	-12760
thú	-12761
vib	-12762
vid	-12763
vif	-12764
vih	-12765
vii	-12766
vil	-12767
vim	-12768
vio	-12769
vip	-12770
vit	-12771
viu	-12772
viy	-12773
viá	-12774
vié	-12775
vií	-12776
vió	-12777
viú	-12778
ynb	-12779
ynf	-12780
ynh	-12781
ynu	-12782
ynv	-12783
yny	-12784
yná	-12785
yné	-12786
yní	-12787
ynó	-12788
ynú	-12789
áaf	-12790
áah	-12791
áaá	-12792
áaé	-12793
áaí	-12794
áaó	-12795
áaú	-12796
ább	-12797
ábc	-12798
ábd	-12799
ábf	-12800
ábg	-12801
ábh	-12802
ábl	-12803
ábm	-12804
ábn	-12805
ábp	-12806
ábr	-12807
ábs	-12808
ábt	-12809
ábv	-12810
ábá	-12811
ábé	-12812
ábí	-12813
ábó	-12814
ábú	-12815
ácb	-12816
ácf	-12817
ácv	-12818
ácy	-12819
ácá	-12820
ácé	-12821
ácí	-12822
ácó	-12823
ácú	-12824
ádb	-12825
ádf	-12826
ádh	-12827
ádv	-12828
ády	-12829
ádá	-12830
ádé	-12831
ádí	-12832
ádó	-12833
ádú	-12834
áeb	-12835
áeh	-12836
áev	-12837
áey	-12838
áeá	-12839
áeé	-12840
áeí	-12841
áeó	-12842
áeú	-12843
áfb	-12844
áfc	-12845
áfd	-12846
áfe	-12847
áfg	-12848
áfh	-12849
áfl	-12850
áfm	-12851
áfn	-12852
áfp	-12853
áfr	-12854
áfs	-12855
áfu	-12856
áfv	-12857
áfá	-12858
áfé	-12859
áfí	-12860
áfó	-12861
áfú	-12862
ágb	-12863
ágf	-12864
ágh	-12865
ágv	-12866
ágy	-12867
ágá	-12868
ágé	-12869
ágí	-12870
ágó	-12871
ágú	-12872
áhb	-12873
áhc	-12874
áhd	-12875
áhf	-12876
áhg	-12877
áhh	-12878
áhl	-12879
áhm	-12880
áhn	-12881
áhp	-12882
áhr	-12883
áhs	-12884
áht	-12885
áhv	-12886
áhá	-12887
áhí	-12888
áhú	-12889
áif	-12890
áih	-12891
áiy	-12892
áiá	-12893
áié	-12894
áií	-12895
áiú	-12896
áob	-12897
áof	-12898
áoh	-12899
áov	-12900
áoy	-12901
áoá	-12902
áoé	-12903
áoí	-12904
áoó	-12905
áoú	-12906
ápb	-12907
ápf	-12908
ápv	-12909
ápy	-12910
ápá	-12911
ápé	-12912
ápí	-12913
ápó	-12914
ápú	-12915
árf	-12916
árh	-12917
árv	-12918
áry	-12919
árá	-12920
áré	-12921
árí	-12922
áró	-12923
árú	-12924
ása	-12925
ásb	-12926
ásc	-12927
ásd	-12928
ásf	-12929
ásg	-12930
ásh	-12931
ásl	-12932
ásm	-12933
ásn	-12934
áso	-12935
ásr	-12936
áss	-12937
ásu	-12938
ásv	-12939
ásy	-12940
ásá	-12941
ásé	-12942
ásí	-12943
ásó	-12944
ású	-12945
áub	-12946
áuf	-12947
áuh	-12948
áuv	-12949
áuy	-12950
áuá	-12951
áué	-12952
áuí	-12953
áuó	-12954
áuú	-12955
ávb	-12956
ávc	-12957
ávd	-12958
ávf	-12959
ávg	-12960
ávh	-12961
ávl	-12962
ávm	-12963
ávn	-12964
ávp	-12965
ávr	-12966
ávs	-12967
ávt	-12968
ávu	-12969
ávv	-12970
ávy	-12971
ává	-12972
ávé	-12973
áví	-12974
ávó	-12975
ávú	-12976
áya	-12977
áyb	-12978
áyc	-12979
áyd	-12980
áyf	-12981
áyg	-12982
áyh	-12983
áyi	-12984
áyl	-12985
áym	-12986
áyp	-12987
áyr	-12988
áys	-12989
áyt	-12990
áyu	-12991
áyv	-12992
áyy	-12993
áyá	-12994
áyé	-12995
áyí	-12996
áyó	-12997
áyú	-12998
ááa	-12999
áác	-13000
áád	-13001
ááe	-13002
áág	-13003
áái	-13004
ááo	-13005
ááp	-13006
áár	-13007
ááu	-13008
ááá	-13009
ááé	-13010
ááí	-13011
ááó	-13012
ááú	-13013
éaf	-13014
éah	-13015
éaá	-13016
éaé	-13017
éaí	-13018
éaó	-13019
éaú	-13020
ébb	-13021
ébc	-13022
ébd	-13023
ébf	-13024
ébg	-13025
ébh	-13026
ébl	-13027
ébm	-13028
ébn	-13029
ébp	-13030
ébr	-13031
ébs	-13032
ébt	-13033
ébv	-13034
ébá	-13035
ébé	-13036
ébí	-13037
ébó	-13038
ébú	-13039
écb	-13040
écf	-13041
écv	-13042
écy	-13043
écá	-13044
écé	-13045
écí	-13046
écó	-13047
écú	-13048
éeb	-13049
éeh	-13050
éev	-13051
éey	-13052
éeá	-13053
éeé	-13054
éeí	-13055
éeó	-13056
éeú	-13057
égb	-13058
égf	-13059
égh	-13060
égv	-13061
égy	-13062
égá	-13063
égé	-13064
égí	-13065
égó	-13066
égú	-13067
éhb	-13068
éhc	-13069
éhd	-13070
éhf	-13071
éhg	-13072
éhh	-13073
éhl	-13074
éhm	-13075
éhn	-13076
éhp	-13077
éhr	-13078
éhs	-13079
éht	-13080
éhv	-13081
éhy	-13082
éhá	-13083
éhí	-13084
éhú	-13085
éif	-13086
éih	-13087
éiy	-13088
éiá	-13089
éié	-13090
éií	-13091
éiú	-13092
élb	-13093
élh	-13094
élv	-13095
ély	-13096
élá	-13097
élé	-13098
élí	-13099
éló	-13100
élú	-13101
émf	-13102
émh	-13103
émv	-13104
émy	-13105
émá	-13106
émé	-13107
émí	-13108
émó	-13109
émú	-13110
éob	-13111
éof	-13112
éoh	-13113
éov	-13114
éoy	-13115
éoá	-13116
éoé	-13117
éoí	-13118
éoó	-13119
éoú	-13120
épb	-13121
épf	-13122
épv	-13123
épy	-13124
épá	-13125
épé	-13126
épí	-13127
épó	-13128
épú	-13129
érc	-13130
érd	-13131
érf	-13132
érg	-13133
érh	-13134
érl	-13135
érm	-13136
érn	-13137
érp	-13138
érr	-13139
ért	-13140
érv	-13141
éry	-13142
érá	-13143
éré	-13144
érí	-13145
éró	-13146
érú	-13147
éub	-13148
éuf	-13149
éuh	-13150
éuv	-13151
éuy	-13152
éuá	-13153
éué	-13154
éuí	-13155
éuó	-13156
éuú	-13157
évb	-13158
évc	-13159
évd	-13160
évf	-13161
évg	-13162
évh	-13163
évl	-13164
évm	-13165
évn	-13166
évp	-13167
évr	-13168
évs	-13169
évt	-13170
évu	-13171
évv	-13172
évy	-13173
évá	-13174
évé	-13175
éví	-13176
évó	-13177
évú	-13178
éya	-13179
éyb	-13180
éyc	-13181
éyd	-13182
éyf	-13183
éyg	-13184
éyh	-13185
éyi	-13186
éyl	-13187
éym	-13188
éyp	-13189
éyr	-13190
éys	-13191
éyt	-13192
éyu	-13193
éyv	-13194
éyy	-13195
éyá	-13196
éyé	-13197
éyí	-13198
éyó	-13199
éyú	-13200
éáa	-13201
éáb	-13202
éác	-13203
éád	-13204
éáe	-13205
éáf	-13206
éág	-13207
éáh	-13208
éái	-13209
éáo	-13210
éáp	-13211
éár	-13212
éáu	-13213
éáá	-13214
éáé	-13215
éáí	-13216
éáó	-13217
éáú	-13218
ééa	-13219
ééc	-13220
éée	-13221
éég	-13222
ééi	-13223
éél	-13224
éém	-13225
ééo	-13226
éép	-13227
ééu	-13228
ééé	-13229
ééí	-13230
ééó	-13231
ééú	-13232
éóa	-13233
éóc	-13234
éóe	-13235
éói	-13236
éól	-13237
éóo	-13238
éóp	-13239
éós	-13240
éót	-13241
éóu	-13242
éóí	-13243
éúc	-13244
éúd	-13245
éúe	-13246
éúg	-13247
éúi	-13248
éúl	-13249
éúo	-13250
éúp	-13251
éúr	-13252
éút	-13253
éúu	-13254
éúé	-13255
éúí	-13256
éúó	-13257
íaa	-13258
íae	-13259
íaf	-13260
íag	-13261
íah	-13262
íai	-13263
íao	-13264
íap	-13265
íat	-13266
íau	-13267
íav	-13268
íay	-13269
íaá	-13270
íaé	-13271
íaí	-13272
íaó	-13273
íaú	-13274
íoa	-13275
íob	-13276
íoc	-13277
íod	-13278
íoe	-13279
íof	-13280
íog	-13281
íoh	-13282
íoi	-13283
íoo	-13284
íop	-13285
íot	-13286
íou	-13287
íov	-13288
íoy	-13289
íoá	-13290
íoé	-13291
íoí	-13292
íoó	-13293
íoú	-13294
ógb	-13295
ógc	-13296
ógd	-13297
ógf	-13298
ógg	-13299
ógh	-13300
ógi	-13301
ógl	-13302
ógm	-13303
ógn	-13304
ógp	-13305
ógr	-13306
ógs	-13307
ógv	-13308
ógy	-13309
ógá	-13310
ógé	-13311
ógí	-13312
ógó	-13313
ógú	-13314
órc	-13315
órd	-13316
órf	-13317
órg	-13318
órh	-13319
órl	-13320
órm	-13321
órp	-13322
órt	-13323
órv	-13324
óry	-13325
órá	-13326
óré	-13327
órí	-13328
óró	-13329
órú	-13330
úaa	-13331
úae	-13332
úaf	-13333
úah	-13334
úai	-13335
úao	-13336
úap	-13337
úav	-13338
úaá	-13339
úaé	-13340
úaí	-13341
úaó	-13342
úaú	-13343
úba	-13344
úbb	-13345
úbc	-13346
úbd	-13347
úbf	-13348
úbg	-13349
úbh	-13350
úbl	-13351
úbm	-13352
úbn	-13353
úbo	-13354
úbp	-13355
úbr	-13356
úbs	-13357
úbt	-13358
úbv	-13359
úby	-13360
úbá	-13361
úbé	-13362
úbí	-13363
úbó	-13364
úbú	-13365
úcb	-13366
úcf	-13367
úcv	-13368
úcy	-13369
úcá	-13370
úcé	-13371
úcí	-13372
úcó	-13373
úcú	-13374
údb	-13375
údf	-13376
údh	-13377
údv	-13378
údy	-13379
údá	-13380
údé	-13381
údí	-13382
údó	-13383
údú	-13384
úeb	-13385
úeh	-13386
úev	-13387
úey	-13388
úeá	-13389
úeé	-13390
úeí	-13391
úeó	-13392
úeú	-13393
úfb	-13394
úfc	-13395
úfd	-13396
úfe	-13397
úfg	-13398
úfh	-13399
úfl	-13400
úfm	-13401
úfn	-13402
úfp	-13403
úfr	-13404
úfs	-13405
úfu	-13406
úfv	-13407
úfá	-13408
úfé	-13409
úfí	-13410
úfó	-13411
úfú	-13412
úgb	-13413
úgf	-13414
úgh	-13415
úgv	-13416
úgy	-13417
úgá	-13418
úgé	-13419
úgí	-13420
úgó	-13421
úgú	-13422
úhb	-13423
úhc	-13424
úhd	-13425
úhf	-13426
úhg	-13427
úhh	-13428
úhl	-13429
úhm	-13430
úhn	-13431
úhp	-13432
úhr	-13433
úhs	-13434
úht	-13435
úhv	-13436
úhy	-13437
úhá	-13438
úhí	-13439
úhú	-13440
úif	-13441
úih	-13442
úiy	-13443
úiá	-13444
úié	-13445
úií	-13446
úiú	-13447
úlb	-13448
úlh	-13449
úlv	-13450
úly	-13451
úlá	-13452
úlé	-13453
úlí	-13454
úló	-13455
úlú	-13456
úob	-13457
úof	-13458
úoh	-13459
úov	-13460
úoy	-13461
úoá	-13462
úoé	-13463
úoí	-13464
úoó	-13465
úoú	-13466
úpb	-13467
úpf	-13468
úpv	-13469
úpy	-13470
úpá	-13471
úpé	-13472
úpí	-13473
úpó	-13474
úpú	-13475
úrf	-13476
úrh	-13477
úrv	-13478
úry	-13479
úrá	-13480
úré	-13481
úrí	-13482
úró	-13483
úrú	-13484
úsb	-13485
úsc	-13486
úsd	-13487
úsf	-13488
úsg	-13489
úsh	-13490
úsl	-13491
úsm	-13492
úst	-13493
úsu	-13494
úsv	-13495
úsy	-13496
úsá	-13497
úsé	-13498
úsí	-13499
úsó	-13500
úsú	-13501
útb	-13502
útf	-13503
útv	-13504
úté	-13505
útí	-13506
útó	-13507
útú	-13508
úub	-13509
úuf	-13510
úuh	-13511
úuv	-13512
úuy	-13513
úuá	-13514
úué	-13515
úuí	-13516
úuó	-13517
úuú	-13518
úvb	-13519
úvc	-13520
úvd	-13521
úvf	-13522
úvg	-13523
úvh	-13524
úvl	-13525
úvm	-13526
úvn	-13527
úvp	-13528
úvr	-13529
úvs	-13530
úvt	-13531
úvu	-13532
úvv	-13533
úvy	-13534
úvá	-13535
úvé	-13536
úví	-13537
úvó	-13538
úvú	-13539
úya	-13540
úyb	-13541
úyc	-13542
úyd	-13543
úyf	-13544
úyg	-13545
úyh	-13546
úyi	-13547
úyl	-13548
úym	-13549
úyp	-13550
úyr	-13551
úys	-13552
úyt	-13553
úyu	-13554
úyv	-13555
úyy	-13556
úyá	-13557
úyé	-13558
úyí	-13559
úyó	-13560
úyú	-13561
úáa	-13562
úáb	-13563
úác	-13564
úád	-13565
úáe	-13566
úáf	-13567
úág	-13568
úáh	-13569
úái	-13570
úáo	-13571
úáp	-13572
úár	-13573
úáu	-13574
úáá	-13575
úáé	-13576
úáí	-13577
úáó	-13578
úáú	-13579
úéa	-13580
úéc	-13581
úée	-13582
úég	-13583
úéi	-13584
úél	-13585
úém	-13586
úéo	-13587
úép	-13588
úéu	-13589
úéí	-13590
úéó	-13591
úóa	-13592
úóc	-13593
úóe	-13594
úói	-13595
úól	-13596
úóo	-13597
úóp	-13598
úós	-13599
úót	-13600
úóu	-13601
úóí	-13602
úúc	-13603
úúd	-13604
úúe	-13605
úúg	-13606
úúi	-13607
úúl	-13608
úúo	-13609
úúp	-13610
úúr	-13611
úút	-13612
úúu	-13613
úúé	-13614
úúí	-13615
úúó	-13616
úúú	-13617
▁aph	-13618
▁bch	-13619
▁bph	-13620
▁cch	-13621
▁cph	-13622
▁dch	-13623
▁dph	-13624
▁ech	-13625
▁eph	-13626
▁fch	-13627
▁fph	-13628
▁gch	-13629
▁gph	-13630
▁hch	-13631
▁hph	-13632
▁iph	-13633
▁lch	-13634
▁lph	-13635
▁mch	-13636
▁mph	-13637
▁nch	-13638
▁nph	-13639
▁och	-13640
▁pch	-13641
▁pph	-13642
▁rch	-13643
▁rph	-13644
▁sch	-13645
▁tch	-13646
▁tph	-13647
▁uph	-13648
▁vch	-13649
▁vph	-13650
▁ych	-13651
▁yph	-13652
▁ách	-13653
▁áph	-13654
▁éch	-13655
▁éph	-13656
▁ích	-13657
▁íph	-13658
▁óch	-13659
▁óph	-13660
▁úch	-13661
▁úph	-13662
baa	-13663
bae	-13664
baf	-13665
bah	-13666
bai	-13667
bao	-13668
bap	-13669
bav	-13670
baá	-13671
baé	-13672
baí	-13673
baó	-13674
baú	-13675
bbb	-13676
bbc	-13677
bbd	-13678
bbf	-13679
bbg	-13680
bbh	-13681
bbl	-13682
bbm	-13683
bbn	-13684
bbp	-13685
bbr	-13686
bbs	-13687
bbt	-13688
bbv	-13689
bbá	-13690
bbé	-13691
bbí	-13692
bbó	-13693
bbú	-13694
bcb	-13695
bcf	-13696
bcv	-13697
bcy	-13698
bcá	-13699
bcé	-13700
bcí	-13701
bcó	-13702
bcú	-13703
bdb	-13704
bdf	-13705
bdh	-13706
bdv	-13707
bdy	-13708
bdá	-13709
bdé	-13710
bdí	-13711
bdó	-13712
bdú	-13713
bfc	-13714
bfd	-13715
bfe	-13716
bfg	-13717
bfl	-13718
bfm	-13719
bfn	-13720
bfp	-13721
bfr	-13722
bfs	-13723
bfu	-13724
bfé	-13725
bfí	-13726
bfó	-13727
bfú	-13728
bgb	-13729
bgf	-13730
bgh	-13731
bgv	-13732
bgy	-13733
bgá	-13734
bgé	-13735
bgí	-13736
bgó	-13737
bgú	-13738
bhc	-13739
bhd	-13740
bhg	-13741
bhl	-13742
bhm	-13743
bhn	-13744
bhp	-13745
bhr	-13746
bhs	-13747
bht	-13748
bhá	-13749
bhí	-13750
bhú	-13751
blb	-13752
blh	-13753
blv	-13754
bly	-13755
blá	-13756
blé	-13757
blí	-13758
bló	-13759
blú	-13760
bmf	-13761
bmh	-13762
bmv	-13763
bmy	-13764
bmá	-13765
bmé	-13766
bmí	-13767
bmó	-13768
bmú	-13769
bnb	-13770
bnf	-13771
bnh	-13772
bnv	-13773
bny	-13774
bná	-13775
bné	-13776
bní	-13777
bnó	-13778
bnú	-13779
boa	-13780
bob	-13781
boe	-13782
bof	-13783
boh	-13784
boi	-13785
bot	-13786
bou	-13787
bov	-13788
boy	-13789
boá	-13790
boé	-13791
boí	-13792
boó	-13793
boú	-13794
bpb	-13795
bpf	-13796
bpv	-13797
bpy	-13798
bpá	-13799
bpé	-13800
bpí	-13801
bpó	-13802
bpú	-13803
brf	-13804
brh	-13805
brv	-13806
bry	-13807
brá	-13808
bré	-13809
brí	-13810
bró	-13811
brú	-13812
bsb	-13813
bsf	-13814
bsh	-13815
bsv	-13816
bsy	-13817
bsá	-13818
bsé	-13819
bsí	-13820
bsó	-13821
bsú	-13822
btb	-13823
btf	-13824
btv	-13825
bté	-13826
btí	-13827
btó	-13828
btú	-13829
bvc	-13830
bvd	-13831
bvg	-13832
bvl	-13833
bvm	-13834
bvn	-13835
bvp	-13836
bvr	-13837
bvs	-13838
bvt	-13839
bvu	-13840
bvé	-13841
bví	-13842
bvó	-13843
bvú	-13844
fcb	-13845
fcf	-13846
fcv	-13847
fcy	-13848
fcá	-13849
fcé	-13850
fcí	-13851
fcó	-13852
fcú	-13853
fdb	-13854
fdf	-13855
fdh	-13856
fdv	-13857
fdy	-13858
fdá	-13859
fdé	-13860
fdí	-13861
fdó	-13862
fdú	-13863
feb	-13864
feh	-13865
fev	-13866
fey	-13867
feá	-13868
feé	-13869
feí	-13870
feó	-13871
feú	-13872
fgb	-13873
fgf	-13874
fgh	-13875
fgv	-13876
fgy	-13877
fgá	-13878
fgé	-13879
fgí	-13880
fgó	-13881
fgú	-13882
flb	-13883
flh	-13884
flv	-13885
fly	-13886
flá	-13887
flé	-13888
flí	-13889
fló	-13890
flú	-13891
fmf	-13892
fmh	-13893
fmv	-13894
fmy	-13895
fmá	-13896
fmé	-13897
fmí	-13898
fmó	-13899
fmú	-13900
fnb	-13901
fnf	-13902
fnh	-13903
fnv	-13904
fny	-13905
fná	-13906
fné	-13907
fní	-13908
fnó	-13909
fnú	-13910
fpb	-13911
fpf	-13912
fpv	-13913
fpy	-13914
fpá	-13915
fpé	-13916
fpí	-13917
fpó	-13918
fpú	-13919
frf	-13920
frh	-13921
frv	-13922
fry	-13923
frá	-13924
fré	-13925
frí	-13926
fró	-13927
frú	-13928
fsb	-13929
fsf	-13930
fsh	-13931
fsv	-13932
fsy	-13933
fsá	-13934
fsé	-13935
fsí	-13936
fsó	-13937
fsú	-13938
fub	-13939
fuf	-13940
fuh	-13941
fuv	-13942
fuy	-13943
fuá	-13944
fué	-13945
fuí	-13946
fuó	-13947
fuú	-13948
hoa	-13949
hob	-13950
hoc	-13951
hod	-13952
hoe	-13953
hof	-13954
hog	-13955
hoh	-13956
hoi	-13957
hoo	-13958
hop	-13959
hot	-13960
hou	-13961
hov	-13962
hoy	-13963
hoá	-13964
hoé	-13965
hoí	-13966
hoó	-13967
hoú	-13968
tya	-13969
tyb	-13970
tyc	-13971
tyd	-13972
tyf	-13973
tyg	-13974
tyh	-13975
tyi	-13976
tyl	-13977
tym	-13978
typ	-13979
tyr	-13980
tys	-13981
tyt	-13982
tyu	-13983
tyv	-13984
tyy	-13985
tyá	-13986
tyé	-13987
tyí	-13988
tyó	-13989
tyú	-13990
íbb	-13991
íbc	-13992
íbd	-13993
íbf	-13994
íbg	-13995
íbh	-13996
íbl	-13997
íbm	-13998
íbn	-13999
íbp	-14000
íbr	-14001
íbs	-14002
íbt	-14003
íbv	-14004
íbá	-14005
íbé	-14006
íbí	-14007
íbó	-14008
íbú	-14009
ídb	-14010
ídf	-14011
ídh	-14012
ídv	-14013
ídy	-14014
ídá	-14015
ídé	-14016
ídí	-14017
ídó	-14018
ídú	-14019
íeb	-14020
íee	-14021
íeh	-14022
íei	-14023
íep	-14024
íeu	-14025
íev	-14026
íey	-14027
íeá	-14028
íeé	-14029
íeí	-14030
íeó	-14031
íeú	-14032
ífb	-14033
ífc	-14034
ífd	-14035
ífe	-14036
ífg	-14037
ífh	-14038
ífl	-14039
ífm	-14040
ífn	-14041
ífp	-14042
ífr	-14043
ífs	-14044
ífu	-14045
ífv	-14046
ífá	-14047
ífé	-14048
ífí	-14049
ífó	-14050
ífú	-14051
ígb	-14052
ígf	-14053
ígh	-14054
ígv	-14055
így	-14056
ígá	-14057
ígé	-14058
ígí	-14059
ígó	-14060
ígú	-14061
íhb	-14062
íhc	-14063
íhd	-14064
íhf	-14065
íhg	-14066
íhh	-14067
íhl	-14068
íhm	-14069
íhn	-14070
íhp	-14071
íhr	-14072
íhs	-14073
íht	-14074
íhv	-14075
íhy	-14076
íhá	-14077
íhí	-14078
íhú	-14079
íif	-14080
íih	-14081
íiy	-14082
íiá	-14083
íié	-14084
íií	-14085
íiú	-14086
ílb	-14087
ílh	-14088
ílv	-14089
íly	-14090
ílá	-14091
ílé	-14092
ílí	-14093
íló	-14094
ílú	-14095
ímf	-14096
ímh	-14097
ímv	-14098
ímy	-14099
ímá	-14100
ímé	-14101
ímí	-14102
ímó	-14103
ímú	-14104
ípb	-14105
ípf	-14106
ípv	-14107
ípy	-14108
ípá	-14109
ípé	-14110
ípí	-14111
ípó	-14112
ípú	-14113
írf	-14114
írh	-14115
írv	-14116
íry	-14117
írá	-14118
íré	-14119
írí	-14120
író	-14121
írú	-14122
ítb	-14123
ítf	-14124
ítv	-14125
íté	-14126
ítí	-14127
ító	-14128
ítú	-14129
íub	-14130
íuf	-14131
íuh	-14132
íuv	-14133
íuy	-14134
íuá	-14135
íué	-14136
íuí	-14137
íuó	-14138
íuú	-14139
ívb	-14140
ívc	-14141
ívd	-14142
ívf	-14143
ívg	-14144
ívh	-14145
ívl	-14146
ívm	-14147
ívn	-14148
ívp	-14149
ívr	-14150
ívs	-14151
ívt	-14152
ívu	-14153
ívv	-14154
ívy	-14155
ívá	-14156
ívé	-14157
íví	-14158
ívó	-14159
ívú	-14160
íya	-14161
íyb	-14162
íyc	-14163
íyd	-14164
íyf	-14165
íyg	-14166
íyh	-14167
íyi	-14168
íyl	-14169
íym	-14170
íyp	-14171
íyr	-14172
íys	-14173
íyt	-14174
íyu	-14175
íyv	-14176
íyy	-14177
íyá	-14178
íyé	-14179
íyí	-14180
íyó	-14181
íyú	-14182
íáa	-14183
íáb	-14184
íác	-14185
íád	-14186
íáe	-14187
íáf	-14188
íág	-14189
íáh	-14190
íái	-14191
íáo	-14192
íáp	-14193
íár	-14194
íáu	-14195
íáá	-14196
íáé	-14197
íáí	-14198
íáó	-14199
íáú	-14200
íéa	-14201
íéc	-14202
íée	-14203
íég	-14204
íéi	-14205
íél	-14206
íém	-14207
íéo	-14208
íép	-14209
íéu	-14210
íéé	-14211
íéí	-14212
íéó	-14213
íéú	-14214
ííí	-14215
íóa	-14216
íóc	-14217
íóe	-14218
íói	-14219
íól	-14220
íóo	-14221
íóp	-14222
íós	-14223
íót	-14224
íóu	-14225
íóé	-14226
íóí	-14227
íóó	-14228
íóú	-14229
íúc	-14230
íúd	-14231
íúe	-14232
íúg	-14233
íúi	-14234
íúl	-14235
íúo	-14236
íúp	-14237
íúr	-14238
íút	-14239
íúu	-14240
íúé	-14241
íúí	-14242
íúó	-14243
ódb	-14244
ódc	-14245
ódd	-14246
ódf	-14247
ódg	-14248
ódh	-14249
ódl	-14250
ódm	-14251
ódn	-14252
ódp	-14253
ódr	-14254
óds	-14255
ódt	-14256
ódu	-14257
ódv	-14258
ódy	-14259
ódá	-14260
ódé	-14261
ódí	-14262
ódó	-14263
ódú	-14264
úmf	-14265
úmh	-14266
úmv	-14267
úmy	-14268
úmá	-14269
úmé	-14270
úmí	-14271
úmó	-14272
úmú	-14273
▁bhy	-14274
▁brb	-14275
▁crb	-14276
▁dhy	-14277
▁drb	-14278
▁ehy	-14279
▁fhy	-14280
▁frb	-14281
▁ghy	-14282
▁grb	-14283
▁hhy	-14284
▁hrb	-14285
▁ihy	-14286
▁irb	-14287
▁lhy	-14288
▁lrb	-14289
▁mhy	-14290
▁mrb	-14291
▁nhy	-14292
▁nrb	-14293
▁ohy	-14294
▁phy	-14295
▁prb	-14296
▁rhy	-14297
▁rrb	-14298
▁shy	-14299
▁srb	-14300
▁uhy	-14301
▁urb	-14302
▁vhy	-14303
▁vrb	-14304
▁yhy	-14305
▁yrb	-14306
▁áhy	-14307
▁éhy	-14308
▁érb	-14309
▁íhy	-14310
▁írb	-14311
▁óhy	-14312
▁ómo	-14313
▁órb	-14314
▁úhy	-14315
▁úrb	-14316
hbb	-14317
hbc	-14318
hbd	-14319
hbf	-14320
hbg	-14321
hbh	-14322
hbl	-14323
hbm	-14324
hbn	-14325
hbp	-14326
hbr	-14327
hbs	-14328
hbt	-14329
hbv	-14330
hbá	-14331
hbé	-14332
hbí	-14333
hbó	-14334
hbú	-14335
hcb	-14336
hcf	-14337
hcv	-14338
hcy	-14339
hcá	-14340
hcé	-14341
hcí	-14342
hcó	-14343
hcú	-14344
hdb	-14345
hdf	-14346
hdh	-14347
hdv	-14348
hdy	-14349
hdá	-14350
hdé	-14351
hdí	-14352
hdó	-14353
hdú	-14354
hfc	-14355
hfd	-14356
hfe	-14357
hfg	-14358
hfl	-14359
hfm	-14360
hfn	-14361
hfp	-14362
hfr	-14363
hfs	-14364
hfu	-14365
hfé	-14366
hfí	-14367
hfó	-14368
hfú	-14369
hgb	-14370
hgf	-14371
hgh	-14372
hgv	-14373
hgy	-14374
hgá	-14375
hgé	-14376
hgí	-14377
hgó	-14378
hgú	-14379
hhc	-14380
hhd	-14381
hhf	-14382
hhg	-14383
hhh	-14384
hhl	-14385
hhm	-14386
hhn	-14387
hhp	-14388
hhr	-14389
hhs	-14390
hht	-14391
hhv	-14392
hhá	-14393
hhí	-14394
hhú	-14395
hlb	-14396
hlh	-14397
hlv	-14398
hly	-14399
hlá	-14400
hlé	-14401
hlí	-14402
hló	-14403
hlú	-14404
hmf	-14405
hmh	-14406
hmv	-14407
hmy	-14408
hmá	-14409
hmé	-14410
hmí	-14411
hmó	-14412
hmú	-14413
hnb	-14414
hnf	-14415
hnh	-14416
hnv	-14417
hny	-14418
hná	-14419
hné	-14420
hní	-14421
hnó	-14422
hnú	-14423
hpb	-14424
hpf	-14425
hpv	-14426
hpy	-14427
hpá	-14428
hpé	-14429
hpí	-14430
hpó	-14431
hpú	-14432
hrf	-14433
hrh	-14434
hrv	-14435
hry	-14436
hrá	-14437
hré	-14438
hrí	-14439
hró	-14440
hrú	-14441
hsb	-14442
hsf	-14443
hsh	-14444
hsv	-14445
hsy	-14446
hsá	-14447
hsé	-14448
hsí	-14449
hsó	-14450
hsú	-14451
htb	-14452
htf	-14453
htv	-14454
hté	-14455
htí	-14456
htó	-14457
htú	-14458
hub	-14459
huf	-14460
huh	-14461
huv	-14462
huy	-14463
huá	-14464
hué	-14465
huí	-14466
huó	-14467
huú	-14468
hvc	-14469
hvd	-14470
hvg	-14471
hvl	-14472
hvm	-14473
hvn	-14474
hvp	-14475
hvr	-14476
hvs	-14477
hvt	-14478
hvu	-14479
hvé	-14480
hví	-14481
hvó	-14482
hvú	-14483
hóa	-14484
hób	-14485
hóc	-14486
hóe	-14487
hóf	-14488
hóh	-14489
hói	-14490
hól	-14491
hóo	-14492
hóp	-14493
hós	-14494
hót	-14495
hóu	-14496
hóv	-14497
hóy	-14498
hóá	-14499
hóé	-14500
hóí	-14501
hóó	-14502
hóú	-14503
ícb	-14504
ícf	-14505
ícv	-14506
ícy	-14507
ícá	-14508
ícé	-14509
ící	-14510
ícó	-14511
ícú	-14512
ísb	-14513
ísc	-14514
ísd	-14515
ísf	-14516
ísg	-14517
ísh	-14518
ísl	-14519
ísm	-14520
íst	-14521
ísu	-14522
ísv	-14523
ísy	-14524
ísá	-14525
ísé	-14526
ísí	-14527
ísó	-14528
ísú	-14529
▁aav	-14530
▁aiv	-14531
▁aió	-14532
▁bav	-14533
▁eav	-14534
▁eiv	-14535
▁eió	-14536
▁gav	-14537
▁giv	-14538
▁gió	-14539
▁hiv	-14540
▁hió	-14541
▁iav	-14542
▁iiv	-14543
▁iió	-14544
▁niv	-14545
▁nió	-14546
▁oav	-14547
▁oiv	-14548
▁oió	-14549
▁uav	-14550
▁uiv	-14551
▁uió	-14552
▁vav	-14553
▁yav	-14554
▁yiv	-14555
▁yió	-14556
▁áav	-14557
▁áiv	-14558
▁áió	-14559
▁éav	-14560
▁éiv	-14561
▁éió	-14562
▁íiv	-14563
▁íió	-14564
▁óav	-14565
▁óiv	-14566
▁óió	-14567
▁úav	-14568
▁úiv	-14569
▁úió	-14570
▁aef	-14571
▁aib	-14572
▁bef	-14573
▁blf	-14574
▁cef	-14575
▁dlf	-14576
▁eef	-14577
▁eib	-14578
▁fef	-14579
▁flf	-14580
▁gef	-14581
▁gib	-14582
▁glf	-14583
▁hib	-14584
▁hlf	-14585
▁ief	-14586
▁iib	-14587
▁ilf	-14588
▁mlf	-14589
▁nib	-14590
▁nlf	-14591
▁oef	-14592
▁oib	-14593
▁pef	-14594
▁plf	-14595
▁rlf	-14596
▁slf	-14597
▁tlf	-14598
▁uib	-14599
▁vlf	-14600
▁yef	-14601
▁yib	-14602
▁ylf	-14603
▁áef	-14604
▁áib	-14605
▁éef	-14606
▁éib	-14607
▁íef	-14608
▁íib	-14609
▁ílf	-14610
▁óef	-14611
▁óib	-14612
▁ólf	-14613
▁úef	-14614
▁úib	-14615
▁úlf	-14616
cb	-14617
cf	-14618
cv	-14619
cy	-14620
cá	-14621
cé	-14622
cí	-14623
có	-14624
cú	-14625
▁agon	-14626
▁aimp	-14627
▁aion	-14628
▁aman	-14629
▁apon	-14630
▁aras	-14631
▁atan	-14632
▁ates	-14633
▁atos	-14634
▁aues	-14635
▁cgon	-14636
▁cion	-14637
▁cles	-14638
▁cman	-14639
▁cpon	-14640
▁cras	-14641
▁cron	-14642
▁ctan	-14643
▁ctes	-14644
▁ctos	-14645
▁dgon	-14646
▁dles	-14647
▁dman	-14648
▁dpon	-14649
▁dras	-14650
▁dron	-14651
▁dtan	-14652
▁dtes	-14653
▁dtos	-14654
▁dues	-14655
▁egon	-14656
▁eimp	-14657
▁eion	-14658
▁eman	-14659
▁epon	-14660
▁etan	-14661
▁etes	-14662
▁etos	-14663
▁eues	-14664
▁ggon	-14665
▁gimp	-14666
▁gion	-14667
▁gles	-14668
▁gman	-14669
▁gpon	-14670
▁gras	-14671
▁gron	-14672
▁gtan	-14673
▁gtes	-14674
▁gtos	-14675
▁gues	-14676
▁icas	-14677
▁igon	-14678
▁iimp	-14679
▁iion	-14680
▁iles	-14681
▁iman	-14682
▁ipon	-14683
▁iras	-14684
▁iron	-14685
▁itan	-14686
▁ites	-14687
▁itos	-14688
▁iues	-14689
▁lgon	-14690
▁lles	-14691
▁lman	-14692
▁lpon	-14693
▁lras	-14694
▁lron	-14695
▁ltan	-14696
▁ltes	-14697
▁ltos	-14698
▁lues	-14699
▁mgon	-14700
▁mion	-14701
▁mles	-14702
▁mman	-14703
▁mpon	-14704
▁mras	-14705
▁mron	-14706
▁mtan	-14707
▁mtes	-14708
▁mtos	-14709
▁ngon	-14710
▁nimp	-14711
▁nion	-14712
▁nles	-14713
▁nman	-14714
▁npon	-14715
▁nras	-14716
▁nron	-14717
▁ntan	-14718
▁ntes	-14719
▁ntos	-14720
▁nues	-14721
▁ogon	-14722
▁oimp	-14723
▁oion	-14724
▁oles	-14725
▁oman	-14726
▁otan	-14727
▁otes	-14728
▁otos	-14729
▁oues	-14730
▁pgon	-14731
▁pion	-14732
▁ples	-14733
▁pman	-14734
▁ppon	-14735
▁pras	-14736
▁ptan	-14737
▁ptes	-14738
▁ptos	-14739
▁pues	-14740
▁rgon	-14741
▁rles	-14742
▁rman	-14743
▁rpon	-14744
▁rras	-14745
▁rron	-14746
▁rtan	-14747
▁rtes	-14748
▁rtos	-14749
▁rues	-14750
▁sgon	-14751
▁sles	-14752
▁sman	-14753
▁sras	-14754
▁sron	-14755
▁stan	-14756
▁stes	-14757
▁stos	-14758
▁tgon	-14759
▁tles	-14760
▁tman	-14761
▁tpon	-14762
▁ttan	-14763
▁ttes	-14764
▁ttos	-14765
▁tues	-14766
▁ugon	-14767
▁uimp	-14768
▁uion	-14769
▁uman	-14770
▁upon	-14771
▁uras	-14772
▁uron	-14773
▁utan	-14774
▁utes	-14775
▁utos	-14776
▁uues	-14777
ciaa	-14778
ciae	-14779
ciag	-14780
ciai	-14781
ciao	-14782
ciap	-14783
ciat	-14784
ciau	-14785
cioa	-14786
cioc	-14787
ciod	-14788
cioe	-14789
ciog	-14790
cioi	-14791
ciom	-14792
cioo	-14793
ciop	-14794
ciot	-14795
ciou	-14796
dada	-14797
dadc	-14798
dadd	-14799
dade	-14800
dadg	-14801
dadi	-14802
dadl	-14803
dadm	-14804
dadn	-14805
dadp	-14806
dadr	-14807
dads	-14808
dadt	-14809
dadu	-14810
dasa	-14811
dasd	-14812
dase	-14813
dasg	-14814
dasi	-14815
dasl	-14816
dasm	-14817
dasn	-14818
daso	-14819
dasp	-14820
dasr	-14821
dass	-14822
dast	-14823
dasu	-14824
denc	-14825
deng	-14826
deni	-14827
denl	-14828
denm	-14829
denn	-14830
deno	-14831
denp	-14832
denr	-14833
denu	-14834
derc	-14835
derd	-14836
dere	-14837
derg	-14838
derl	-14839
derm	-14840
dern	-14841
dero	-14842
derp	-14843
derr	-14844
ders	-14845
dert	-14846
deru	-14847
dirc	-14848
dird	-14849
dirg	-14850
dirl	-14851
dirm	-14852
dirp	-14853
dirt	-14854
dorc	-14855
dord	-14856
dorg	-14857
dorl	-14858
dorn	-14859
doro	-14860
dorp	-14861
dorr	-14862
dors	-14863
dort	-14864
doru	-14865
dosa	-14866
dosc	-14867
dosd	-14868
dosg	-14869
dosi	-14870
dosl	-14871
dosm	-14872
dosn	-14873
doso	-14874
dosp	-14875
dosr	-14876
doss	-14877
dost	-14878
dosu	-14879
duca	-14880
ducc	-14881
ducd	-14882
ducg	-14883
ducl	-14884
ducm	-14885
ducn	-14886
duco	-14887
ducp	-14888
ducr	-14889
ducs	-14890
duct	-14891
ducu	-14892
enea	-14893
ened	-14894
enee	-14895
eneg	-14896
enei	-14897
eneo	-14898
enep	-14899
enet	-14900
eneu	-14901
gara	-14902
garc	-14903
gard	-14904
garg	-14905
gari	-14906
garl	-14907
garm	-14908
garn	-14909
garo	-14910
garp	-14911
garr	-14912
gars	-14913
gart	-14914
garu	-14915
gasa	-14916
gasd	-14917
gasg	-14918
gasi	-14919
gasl	-14920
gasm	-14921
gasn	-14922
gaso	-14923
gasp	-14924
gasr	-14925
gass	-14926
gast	-14927
gasu	-14928
giaa	-14929
giae	-14930
giai	-14931
giao	-14932
giap	-14933
ginc	-14934
gind	-14935
gine	-14936
ginl	-14937
ginm	-14938
ginn	-14939
ginp	-14940
ginr	-14941
gins	-14942
ginu	-14943
grea	-14944
gred	-14945
gree	-14946
greg	-14947
grei	-14948
grel	-14949
grem	-14950
greo	-14951
grep	-14952
gret	-14953
greu	-14954
grua	-14955
grud	-14956
grui	-14957
grum	-14958
gruo	-14959
grur	-14960
gruu	-14961
gulc	-14962
guld	-14963
gulg	-14964
guli	-14965
gulm	-14966
guln	-14967
gulp	-14968
gulr	-14969
guls	-14970
gult	-14971
gulu	-14972
gunc	-14973
gune	-14974
gung	-14975
guni	-14976
gunl	-14977
gunm	-14978
gunn	-14979
guno	-14980
gunp	-14981
gunr	-14982
guns	-14983
gunt	-14984
gunu	-14985
icaa	-14986
icae	-14987
icag	-14988
icai	-14989
icao	-14990
icap	-14991
icat	-14992
icau	-14993
icoa	-14994
icoc	-14995
icod	-14996
icoe	-14997
icog	-14998
icoi	-14999
icom	-15000
icoo	-15001
icop	-15002
icot	-15003
icou	-15004
icsc	-15005
icsd	-15006
icsg	-15007
icsl	-15008
icsm	-15009
icst	-15010
icsu	-15011
inaa	-15012
inae	-15013
inag	-15014
inai	-15015
inao	-15016
inap	-15017
inat	-15018
inau	-15019
lasa	-15020
lasc	-15021
lasd	-15022
lasg	-15023
lasl	-15024
lasm	-15025
lasn	-15026
laso	-15027
lasr	-15028
lass	-15029
last	-15030
lasu	-15031
menc	-15032
meng	-15033
meni	-15034
menl	-15035
menm	-15036
menn	-15037
meno	-15038
menp	-15039
menr	-15040
mens	-15041
menu	-15042
meoa	-15043
meoc	-15044
meod	-15045
meoe	-15046
meog	-15047
meoi	-15048
meoo	-15049
meop	-15050
meot	-15051
meou	-15052
pagc	-15053
pagd	-15054
pagg	-15055
pagl	-15056
pagm	-15057
pagn	-15058
pagp	-15059
pagr	-15060
pags	-15061
peoa	-15062
peoc	-15063
peoe	-15064
peog	-15065
peoi	-15066
peoo	-15067
peop	-15068
peot	-15069
peou	-15070
tamc	-15071
tamd	-15072
tamg	-15073
taml	-15074
tamm	-15075
tamn	-15076
tamr	-15077
tams	-15078
tamt	-15079
tamu	-15080
tarc	-15081
tard	-15082
targ	-15083
tarl	-15084
tarm	-15085
tarn	-15086
tarp	-15087
tarr	-15088
tars	-15089
tart	-15090
taru	-15091
tasa	-15092
tasc	-15093
tasd	-15094
tasg	-15095
tasl	-15096
tasm	-15097
tasn	-15098
taso	-15099
tasr	-15100
tass	-15101
tast	-15102
tasu	-15103
tegp	-15104
teoa	-15105
teoe	-15106
teog	-15107
teoi	-15108
teoo	-15109
teop	-15110
teot	-15111
teou	-15112
tiei	-15113
tiep	-15114
tieu	-15115
tirc	-15116
tird	-15117
tirg	-15118
tirl	-15119
tirm	-15120
tirn	-15121
tirp	-15122
tirr	-15123
tirt	-15124
tora	-15125
torc	-15126
tord	-15127
torg	-15128
torl	-15129
torn	-15130
toro	-15131
torp	-15132
torr	-15133
tors	-15134
tort	-15135
toru	-15136
traa	-15137
trac	-15138
trae	-15139
trag	-15140
tram	-15141
trao	-15142
trap	-15143
trat	-15144
trau	-15145
trea	-15146
trec	-15147
tred	-15148
tree	-15149
treg	-15150
trei	-15151
trem	-15152
treo	-15153
trep	-15154
tret	-15155
treu	-15156
trua	-15157
trui	-15158
trum	-15159
truo	-15160
trur	-15161
truu	-15162
tuaa	-15163
tuae	-15164
tuag	-15165
tuai	-15166
tuao	-15167
tuap	-15168
tupd	-15169
tupg	-15170
tupp	-15171
undc	-15172
undd	-15173
undg	-15174
undl	-15175
undm	-15176
undn	-15177
undp	-15178
undr	-15179
unds	-15180
undt	-15181
undu	-15182
▁ater	-15183
▁cces	-15184
▁ccon	-15185
▁clos	-15186
▁cmos	-15187
▁cter	-15188
▁dces	-15189
▁dcon	-15190
▁dlos	-15191
▁dmos	-15192
▁dros	-15193
▁drus	-15194
▁dter	-15195
▁eces	-15196
▁emos	-15197
▁gces	-15198
▁gcon	-15199
▁glos	-15200
▁gmos	-15201
▁gros	-15202
▁grus	-15203
▁gter	-15204
▁ilos	-15205
▁imos	-15206
▁iros	-15207
▁irus	-15208
▁lces	-15209
▁lcon	-15210
▁llos	-15211
▁lmos	-15212
▁lros	-15213
▁lrus	-15214
▁lter	-15215
▁mces	-15216
▁mcon	-15217
▁mlos	-15218
▁mmos	-15219
▁mros	-15220
▁mrus	-15221
▁mter	-15222
▁nces	-15223
▁ncon	-15224
▁nlos	-15225
▁nmos	-15226
▁nros	-15227
▁nrus	-15228
▁nter	-15229
▁oces	-15230
▁ocon	-15231
▁olos	-15232
▁omos	-15233
▁orta	-15234
▁oter	-15235
▁pces	-15236
▁pcon	-15237
▁plos	-15238
▁pmos	-15239
▁pter	-15240
▁rces	-15241
▁rcon	-15242
▁rlos	-15243
▁rmos	-15244
▁rros	-15245
▁rrus	-15246
▁rter	-15247
▁sces	-15248
▁scon	-15249
▁slos	-15250
▁smos	-15251
▁sros	-15252
▁srus	-15253
▁ster	-15254
▁tces	-15255
▁tcon	-15256
▁tlos	-15257
▁tmos	-15258
▁tter	-15259
▁ulos	-15260
▁umos	-15261
▁uros	-15262
▁urus	-15263
▁uter	-15264
damc	-15265
damd	-15266
dame	-15267
damg	-15268
daml	-15269
damm	-15270
damn	-15271
damo	-15272
damr	-15273
damt	-15274
damu	-15275
danc	-15276
dane	-15277
dang	-15278
danl	-15279
danm	-15280
dann	-15281
dano	-15282
danp	-15283
danr	-15284
dans	-15285
dant	-15286
danu	-15287
dapd	-15288
dapg	-15289
dapl	-15290
dapp	-15291
desc	-15292
desd	-15293
desg	-15294
desi	-15295
desl	-15296
desm	-15297
desn	-15298
deso	-15299
desp	-15300
desr	-15301
dess	-15302
desu	-15303
dicc	-15304
dicd	-15305
dicg	-15306
dicl	-15307
dicm	-15308
dicn	-15309
dicp	-15310
dicr	-15311
dics	-15312
dict	-15313
dicu	-15314
dioa	-15315
dioc	-15316
diod	-15317
dioe	-15318
diog	-15319
dioi	-15320
dioo	-15321
diop	-15322
diot	-15323
diou	-15324
disa	-15325
disd	-15326
disg	-15327
disi	-15328
disl	-15329
dism	-15330
disn	-15331
disp	-15332
disr	-15333
diss	-15334
disu	-15335
draa	-15336
drac	-15337
drae	-15338
drag	-15339
drai	-15340
dram	-15341
drao	-15342
drap	-15343
drat	-15344
drau	-15345
enaa	-15346
enae	-15347
enag	-15348
enai	-15349
enao	-15350
enap	-15351
enat	-15352
enau	-15353
endc	-15354
endd	-15355
endg	-15356
endl	-15357
endm	-15358
endn	-15359
endp	-15360
endr	-15361
ends	-15362
endt	-15363
endu	-15364
eraa	-15365
erae	-15366
erag	-15367
erai	-15368
erao	-15369
erap	-15370
erat	-15371
erau	-15372
erid	-15373
erii	-15374
eril	-15375
erim	-15376
erio	-15377
erip	-15378
erir	-15379
erit	-15380
eriu	-15381
ganc	-15382
gane	-15383
gang	-15384
ganl	-15385
ganm	-15386
gann	-15387
gano	-15388
ganp	-15389
ganr	-15390
gans	-15391
gant	-15392
ganu	-15393
icea	-15394
icee	-15395
icei	-15396
iceo	-15397
icep	-15398
iceu	-15399
igoa	-15400
igoc	-15401
igod	-15402
igoe	-15403
igog	-15404
igoi	-15405
igoo	-15406
igop	-15407
igot	-15408
igou	-15409
igua	-15410
igum	-15411
igur	-15412
iguu	-15413
ingc	-15414
ingd	-15415
inge	-15416
ingg	-15417
ingi	-15418
ingl	-15419
ingm	-15420
ingn	-15421
ingp	-15422
ingr	-15423
ings	-15424
ingt	-15425
inia	-15426
inid	-15427
inii	-15428
inio	-15429
inip	-15430
init	-15431
iniu	-15432
inoa	-15433
inoc	-15434
inoe	-15435
inog	-15436
inoi	-15437
inoo	-15438
inop	-15439
inot	-15440
inou	-15441
isee	-15442
isei	-15443
iseo	-15444
isep	-15445
iseu	-15446
istc	-15447
istd	-15448
istg	-15449
istl	-15450
istm	-15451
istn	-15452
istp	-15453
ists	-15454
istt	-15455
lanc	-15456
land	-15457
lane	-15458
lang	-15459
lani	-15460
lanl	-15461
lanm	-15462
lann	-15463
lanp	-15464
lanr	-15465
lans	-15466
lant	-15467
lanu	-15468
logc	-15469
logd	-15470
logg	-15471
logl	-15472
logm	-15473
logn	-15474
logp	-15475
logr	-15476
logs	-15477
mara	-15478
mard	-15479
marg	-15480
marl	-15481
marm	-15482
marn	-15483
maro	-15484
marp	-15485
marr	-15486
mars	-15487
mart	-15488
maru	-15489
moia	-15490
moii	-15491
moip	-15492
moiu	-15493
mpoa	-15494
mpoe	-15495
mpoi	-15496
mpot	-15497
mpou	-15498
mpsc	-15499
mpsd	-15500
mpsg	-15501
mpsl	-15502
mpsm	-15503
mpst	-15504
mpsu	-15505
orid	-15506
orii	-15507
oril	-15508
orim	-15509
orio	-15510
orip	-15511
orir	-15512
orit	-15513
oriu	-15514
perc	-15515
perd	-15516
pere	-15517
perg	-15518
perl	-15519
perm	-15520
pern	-15521
pero	-15522
perp	-15523
perr	-15524
pers	-15525
pert	-15526
peru	-15527
porc	-15528
pord	-15529
porg	-15530
porl	-15531
porn	-15532
poro	-15533
porp	-15534
porr	-15535
pors	-15536
port	-15537
poru	-15538
proa	-15539
proc	-15540
prod	-15541
proe	-15542
prog	-15543
proi	-15544
prol	-15545
prom	-15546
proo	-15547
prop	-15548
prot	-15549
prou	-15550
putc	-15551
putd	-15552
putg	-15553
putl	-15554
putm	-15555
putn	-15556
putp	-15557
puts	-15558
putt	-15559
tadd	-15560
tadp	-15561
tadt	-15562
tadu	-15563
tecc	-15564
tecd	-15565
tece	-15566
tecg	-15567
tecl	-15568
tecm	-15569
tecn	-15570
teco	-15571
tecp	-15572
tecr	-15573
tecs	-15574
tect	-15575
ucrc	-15576
ucrd	-15577
ucrg	-15578
ucrl	-15579
ucrm	-15580
ucrp	-15581
ucrr	-15582
ucrt	-15583
uelc	-15584
ueld	-15585
uelg	-15586
uelm	-15587
ueln	-15588
uelp	-15589
uelr	-15590
uels	-15591
uelt	-15592
unaa	-15593
unae	-15594
unag	-15595
unai	-15596
unao	-15597
unap	-15598
unat	-15599
usoa	-15600
usoe	-15601
usoi	-15602
usot	-15603
usou	-15604
▁aici	-15605
▁aoun	-15606
▁aral	-15607
▁ares	-15608
▁aser	-15609
▁auci	-15610
▁ccad	-15611
▁ccos	-15612
▁cral	-15613
▁cres	-15614
▁cser	-15615
▁dcad	-15616
▁dcos	-15617
▁dral	-15618
▁dres	-15619
▁dser	-15620
▁duas	-15621
▁duci	-15622
▁eici	-15623
▁eoun	-15624
▁euas	-15625
▁euci	-15626
▁gcad	-15627
▁gcos	-15628
▁gici	-15629
▁goun	-15630
▁gral	-15631
▁gres	-15632
▁gser	-15633
▁guas	-15634
▁guci	-15635
▁ical	-15636
▁iici	-15637
▁ioun	-15638
▁iral	-15639
▁ires	-15640
▁iser	-15641
▁iuas	-15642
▁iuci	-15643
▁lcad	-15644
▁lcos	-15645
▁lral	-15646
▁lres	-15647
▁lser	-15648
▁luci	-15649
▁mcad	-15650
▁mcos	-15651
▁mral	-15652
▁mres	-15653
▁mser	-15654
▁ncad	-15655
▁ncos	-15656
▁nici	-15657
▁nral	-15658
▁nres	-15659
▁nser	-15660
▁nuas	-15661
▁nuci	-15662
▁ocad	-15663
▁ocos	-15664
▁oici	-15665
▁ooun	-15666
▁osec	-15667
▁ouas	-15668
▁ouci	-15669
▁pcad	-15670
▁pcos	-15671
▁pral	-15672
▁pser	-15673
▁puci	-15674
▁rcad	-15675
▁rcos	-15676
▁rral	-15677
▁rres	-15678
▁rser	-15679
▁ruci	-15680
▁sral	-15681
▁sres	-15682
▁sser	-15683
▁tcad	-15684
▁tcos	-15685
▁tser	-15686
▁tuci	-15687
▁uici	-15688
▁uoun	-15689
▁ural	-15690
▁ures	-15691
▁uuas	-15692
▁uuci	-15693
nb	-15694
nf	-15695
nh	-15696
nv	-15697
ny	-15698
ná	-15699
né	-15700
ní	-15701
nó	-15702
nú	-15703
andc	-15704
andd	-15705
andg	-15706
andl	-15707
andm	-15708
andn	-15709
andp	-15710
andr	-15711
ands	-15712
andt	-15713
andu	-15714
ecua	-15715
ecud	-15716
ecui	-15717
ecum	-15718
ecuo	-15719
ecuu	-15720
encc	-15721
encd	-15722
encg	-15723
encl	-15724
encm	-15725
encn	-15726
encp	-15727
encs	-15728
enct	-15729
ernc	-15730
ernd	-15731
erne	-15732
erng	-15733
ernl	-15734
ernm	-15735
ernn	-15736
ernp	-15737
ernr	-15738
ernt	-15739
ernu	-15740
eroa	-15741
eroc	-15742
erod	-15743
eroe	-15744
erog	-15745
eroi	-15746
eroo	-15747
erop	-15748
erot	-15749
erou	-15750
intc	-15751
intd	-15752
intg	-15753
intl	-15754
intn	-15755
intp	-15756
ints	-15757
isoa	-15758
isoe	-15759
isoi	-15760
isoo	-15761
isot	-15762
isou	-15763
larc	-15764
lard	-15765
larg	-15766
larl	-15767
larm	-15768
larn	-15769
larp	-15770
larr	-15771
lars	-15772
lart	-15773
lotd	-15774
lotg	-15775
lotl	-15776
lotp	-15777
minc	-15778
mind	-15779
mine	-15780
minl	-15781
minm	-15782
minn	-15783
minp	-15784
minr	-15785
mins	-15786
minu	-15787
morc	-15788
mord	-15789
morg	-15790
morl	-15791
morn	-15792
moro	-15793
morp	-15794
morr	-15795
mors	-15796
mort	-15797
moru	-15798
ormc	-15799
ormd	-15800
orme	-15801
ormg	-15802
ormi	-15803
orml	-15804
ormm	-15805
ormn	-15806
ormr	-15807
orms	-15808
ormt	-15809
ormu	-15810
osia	-15811
osid	-15812
osii	-15813
osio	-15814
osip	-15815
osit	-15816
osiu	-15817
osoa	-15818
osoe	-15819
osog	-15820
osoi	-15821
osoo	-15822
osot	-15823
osou	-15824
parg	-15825
parl	-15826
parm	-15827
parn	-15828
parp	-15829
parr	-15830
pars	-15831
part	-15832
paru	-15833
piea	-15834
pied	-15835
piee	-15836
pieg	-15837
piei	-15838
piel	-15839
piem	-15840
pieo	-15841
piep	-15842
piet	-15843
pieu	-15844
prea	-15845
pred	-15846
pree	-15847
preg	-15848
prei	-15849
prel	-15850
prem	-15851
preo	-15852
prep	-15853
pret	-15854
preu	-15855
pria	-15856
prid	-15857
prie	-15858
prig	-15859
prii	-15860
pril	-15861
prim	-15862
prio	-15863
prip	-15864
prit	-15865
priu	-15866
teng	-15867
teni	-15868
tenl	-15869
tenm	-15870
tenn	-15871
teno	-15872
tenp	-15873
tenr	-15874
tens	-15875
tenu	-15876
tmoa	-15877
tmoc	-15878
tmod	-15879
tmoe	-15880
tmog	-15881
tmol	-15882
tmom	-15883
tmoo	-15884
tmop	-15885
tmot	-15886
tmou	-15887
ullc	-15888
ullg	-15889
ullm	-15890
ulln	-15891
ullp	-15892
ullr	-15893
ulls	-15894
ullt	-15895
unoa	-15896
unoe	-15897
unoi	-15898
unot	-15899
unou	-15900
▁aado	-15901
▁aata	-15902
▁aear	-15903
▁aent	-15904
▁aido	-15905
▁aier	-15906
▁aipo	-15907
▁aito	-15908
▁aror	-15909
▁cado	-15910
▁ccal	-15911
▁ccan	-15912
▁ccar	-15913
▁ccas	-15914
▁ccla	-15915
▁ccri	-15916
▁cear	-15917
▁cipo	-15918
▁clic	-15919
▁clor	-15920
▁cnec	-15921
▁crco	-15922
▁cror	-15923
▁data	-15924
▁dcal	-15925
▁dcan	-15926
▁dcar	-15927
▁dcas	-15928
▁dcla	-15929
▁dcri	-15930
▁dlic	-15931
▁dlor	-15932
▁dnec	-15933
▁drco	-15934
▁dror	-15935
▁dual	-15936
▁dulo	-15937
▁eado	-15938
▁eata	-15939
▁ecal	-15940
▁ecar	-15941
▁ecas	-15942
▁ecla	-15943
▁ecri	-15944
▁eear	-15945
▁eent	-15946
▁eido	-15947
▁eier	-15948
▁eipo	-15949
▁eito	-15950
▁eual	-15951
▁eulo	-15952
▁gado	-15953
▁gata	-15954
▁gcal	-15955
▁gcan	-15956
▁gcar	-15957
▁gcas	-15958
▁gcla	-15959
▁gcri	-15960
▁gear	-15961
▁gent	-15962
▁gido	-15963
▁gier	-15964
▁gipo	-15965
▁gito	-15966
▁glic	-15967
▁glor	-15968
▁gnec	-15969
▁grco	-15970
▁gror	-15971
▁gual	-15972
▁gulo	-15973
▁iado	-15974
▁iata	-15975
▁iear	-15976
▁ient	-15977
▁iido	-15978
▁iier	-15979
▁iipo	-15980
▁iito	-15981
▁ilic	-15982
▁ilor	-15983
▁irco	-15984
▁iror	-15985
▁iual	-15986
▁iulo	-15987
▁lcal	-15988
▁lcan	-15989
▁lcar	-15990
▁lcas	-15991
▁lcla	-15992
▁lcri	-15993
▁lent	-15994
▁lier	-15995
▁lipo	-15996
▁llic	-15997
▁llor	-15998
▁lnec	-15999
▁lrco	-16000
▁lror	-16001
▁lulo	-16002
▁mado	-16003
▁mcal	-16004
▁mcan	-16005
▁mcar	-16006
▁mcas	-16007
▁mcla	-16008
▁mcri	-16009
▁mier	-16010
▁mipo	-16011
▁mlic	-16012
▁mlor	-16013
▁mnec	-16014
▁mrco	-16015
▁mror	-16016
▁nado	-16017
▁nata	-16018
▁ncal	-16019
▁ncan	-16020
▁ncar	-16021
▁ncas	-16022
▁ncla	-16023
▁ncri	-16024
▁nent	-16025
▁nido	-16026
▁nier	-16027
▁nipo	-16028
▁nito	-16029
▁nlic	-16030
▁nlor	-16031
▁nnec	-16032
▁nrco	-16033
▁nror	-16034
▁nual	-16035
▁nulo	-16036
▁oado	-16037
▁oata	-16038
▁ocal	-16039
▁ocan	-16040
▁ocar	-16041
▁ocas	-16042
▁ocla	-16043
▁ocri	-16044
▁oear	-16045
▁oent	-16046
▁oido	-16047
▁oier	-16048
▁oipo	-16049
▁oito	-16050
▁olic	-16051
▁olor	-16052
▁oual	-16053
▁oulo	-16054
▁pado	-16055
▁pcal	-16056
▁pcan	-16057
▁pcar	-16058
▁pcas	-16059
▁pcla	-16060
▁pcri	-16061
▁pear	-16062
▁pent	-16063
▁pier	-16064
▁pipo	-16065
▁plic	-16066
▁plor	-16067
▁pnec	-16068
▁prco	-16069
▁pror	-16070
▁pual	-16071
▁pulo	-16072
▁rado	-16073
▁rcal	-16074
▁rcan	-16075
▁rcar	-16076
▁rcas	-16077
▁rcla	-16078
▁rcri	-16079
▁rent	-16080
▁riel	-16081
▁rlic	-16082
▁rlor	-16083
▁rnec	-16084
▁rrco	-16085
▁rror	-16086
▁rual	-16087
▁rulo	-16088
▁sado	-16089
▁sata	-16090
▁scal	-16091
▁scar	-16092
▁scri	-16093
▁slic	-16094
▁slor	-16095
▁snec	-16096
▁srco	-16097
▁sror	-16098
▁tcal	-16099
▁tcan	-16100
▁tcar	-16101
▁tcas	-16102
▁tcla	-16103
▁tcri	-16104
▁tent	-16105
▁tlic	-16106
▁tlor	-16107
▁tnec	-16108
▁tual	-16109
▁tulo	-16110
▁uado	-16111
▁uata	-16112
▁uelo	-16113
▁uent	-16114
▁uido	-16115
▁uier	-16116
▁uipo	-16117
▁uito	-16118
▁urco	-16119
▁uror	-16120
▁uual	-16121
▁uulo	-16122
acee	-16123
acei	-16124
aceo	-16125
acep	-16126
aceu	-16127
actc	-16128
actd	-16129
actg	-16130
actl	-16131
actn	-16132
actp	-16133
acts	-16134
alia	-16135
alid	-16136
alii	-16137
alil	-16138
alim	-16139
alio	-16140
alip	-16141
alir	-16142
alit	-16143
aliu	-16144
amia	-16145
amid	-16146
amii	-16147
amio	-16148
amip	-16149
amit	-16150
amiu	-16151
amsc	-16152
amsd	-16153
amsg	-16154
amsl	-16155
amsm	-16156
amsn	-16157
amsr	-16158
amss	-16159
amst	-16160
amsu	-16161
anaa	-16162
anae	-16163
anag	-16164
anai	-16165
anao	-16166
anap	-16167
anat	-16168
aria	-16169
arid	-16170
arii	-16171
arip	-16172
arit	-16173
ariu	-16174
ascc	-16175
ascd	-16176
ascg	-16177
ascl	-16178
ascm	-16179
ascn	-16180
ascp	-16181
ascs	-16182
asct	-16183
asoa	-16184
asoe	-16185
asoi	-16186
asot	-16187
asou	-16188
cepc	-16189
cepd	-16190
cepg	-16191
cepl	-16192
cepm	-16193
cepn	-16194
cepp	-16195
cepr	-16196
ceps	-16197
cepu	-16198
curc	-16199
curd	-16200
curg	-16201
curl	-16202
curm	-16203
curn	-16204
curp	-16205
curt	-16206
curu	-16207
ecee	-16208
ecei	-16209
eceo	-16210
ecep	-16211
eceu	-16212
enoa	-16213
enoe	-16214
enoi	-16215
enot	-16216
enou	-16217
ersc	-16218
ersd	-16219
ersg	-16220
ersl	-16221
ersm	-16222
ersn	-16223
ersr	-16224
erss	-16225
erst	-16226
ersu	-16227
esaa	-16228
esae	-16229
esag	-16230
esai	-16231
esao	-16232
esap	-16233
estc	-16234
estd	-16235
estg	-16236
estl	-16237
estn	-16238
estp	-16239
ests	-16240
lenc	-16241
leng	-16242
leni	-16243
lenl	-16244
lenm	-16245
lenn	-16246
lenp	-16247
lenr	-16248
lens	-16249
lenu	-16250
lioa	-16251
lioe	-16252
lioi	-16253
lioo	-16254
liot	-16255
liou	-16256
litc	-16257
litd	-16258
litg	-16259
litl	-16260
litn	-16261
litp	-16262
lits	-16263
oraa	-16264
orae	-16265
orag	-16266
orai	-16267
orao	-16268
orap	-16269
orat	-16270
recc	-16271
recd	-16272
recg	-16273
recl	-16274
recm	-16275
recn	-16276
recp	-16277
recs	-16278
rect	-16279
▁aide	-16280
▁aien	-16281
▁aile	-16282
▁aire	-16283
▁ccul	-16284
▁cien	-16285
▁cile	-16286
▁cire	-16287
▁cren	-16288
▁dcul	-16289
▁dlti	-16290
▁dren	-16291
▁dure	-16292
▁ecul	-16293
▁eide	-16294
▁eien	-16295
▁eile	-16296
▁eire	-16297
▁ente	-16298
▁eure	-16299
▁gcul	-16300
▁gide	-16301
▁gien	-16302
▁gile	-16303
▁gire	-16304
▁glti	-16305
▁gren	-16306
▁gure	-16307
▁iide	-16308
▁iien	-16309
▁iile	-16310
▁iire	-16311
▁ilti	-16312
▁iren	-16313
▁iure	-16314
▁lcul	-16315
▁lien	-16316
▁lile	-16317
▁lire	-16318
▁lren	-16319
▁mcul	-16320
▁mien	-16321
▁mile	-16322
▁mire	-16323
▁mlti	-16324
▁mren	-16325
▁ncul	-16326
▁nide	-16327
▁nien	-16328
▁nile	-16329
▁nire	-16330
▁nlti	-16331
▁nren	-16332
▁nure	-16333
▁oide	-16334
▁oien	-16335
▁oile	-16336
▁oire	-16337
▁olti	-16338
▁oure	-16339
▁pcul	-16340
▁pile	-16341
▁pire	-16342
▁plti	-16343
▁pren	-16344
▁rcul	-16345
▁rite	-16346
▁rlti	-16347
▁rren	-16348
▁scul	-16349
▁slti	-16350
▁sren	-16351
▁tcul	-16352
▁tlti	-16353
▁uide	-16354
▁uien	-16355
▁uile	-16356
▁uire	-16357
▁uren	-16358
▁uure	-16359
adaa	-16360
adae	-16361
adag	-16362
adai	-16363
adao	-16364
adap	-16365
adat	-16366
adau	-16367
allc	-16368
allm	-16369
alln	-16370
allp	-16371
allr	-16372
alls	-16373
allt	-16374
ania	-16375
anid	-16376
anii	-16377
anio	-16378
anip	-16379
anit	-16380
aniu	-16381
araa	-16382
arae	-16383
arag	-16384
arai	-16385
arao	-16386
arap	-16387
asea	-16388
asee	-16389
asei	-16390
aseo	-16391
asep	-16392
aseu	-16393
clua	-16394
clud	-16395
clug	-16396
clui	-16397
clum	-16398
cluo	-16399
clup	-16400
clur	-16401
cluu	-16402
crea	-16403
cred	-16404
cree	-16405
creg	-16406
crei	-16407
crel	-16408
crem	-16409
creo	-16410
cret	-16411
creu	-16412
ildd	-16413
ildp	-16414
ildt	-16415
ildu	-16416
onei	-16417
oneu	-16418
onoa	-16419
onoe	-16420
onoi	-16421
onoo	-16422
onot	-16423
onou	-16424
rirc	-16425
rird	-16426
rirg	-16427
rirl	-16428
rirm	-16429
rirp	-16430
rirr	-16431
rirt	-16432
uraa	-16433
urac	-16434
urae	-16435
urag	-16436
urai	-16437
uram	-16438
urao	-16439
urap	-16440
urat	-16441
urau	-16442
utrc	-16443
utrd	-16444
utrg	-16445
utrl	-16446
utrm	-16447
utrn	-16448
utrp	-16449
utrr	-16450
utrs	-16451
utrt	-16452
▁bac	-16453
▁bad	-16454
▁bag	-16455
▁bal	-16456
▁ban	-16457
▁bao	-16458
▁bas	-16459
▁bau	-16460
▁bcd	-16461
▁bce	-16462
▁bcg	-16463
▁bci	-16464
▁bcl	-16465
▁bcn	-16466
▁bco	-16467
▁bcr	-16468
▁bcs	-16469
▁bdd	-16470
▁bdg	-16471
▁bdi	-16472
▁bdl	-16473
▁bdn	-16474
▁bdo	-16475
▁bdr	-16476
▁bds	-16477
▁bdu	-16478
▁bec	-16479
▁bed	-16480
▁beg	-16481
▁beo	-16482
▁bes	-16483
▁beu	-16484
▁bgd	-16485
▁bge	-16486
▁bgg	-16487
▁bgi	-16488
▁bgl	-16489
▁bgn	-16490
▁bgo	-16491
▁bgs	-16492
▁bgu	-16493
▁bic	-16494
▁bid	-16495
▁bie	-16496
▁big	-16497
▁bil	-16498
▁bio	-16499
▁bir	-16500
▁bis	-16501
▁bld	-16502
▁blg	-16503
▁bli	-16504
▁bln	-16505
▁bls	-16506
▁blu	-16507
▁bma	-16508
▁bmd	-16509
▁bme	-16510
▁bmg	-16511
▁bmi	-16512
▁bml	-16513
▁bmn	-16514
▁bmo	-16515
▁bmp	-16516
▁bms	-16517
▁bmu	-16518
▁bnd	-16519
▁bne	-16520
▁bng	-16521
▁bni	-16522
▁bnl	-16523
▁bnn	-16524
▁bns	-16525
▁bnu	-16526
▁bog	-16527
▁bol	-16528
▁bon	-16529
▁boo	-16530
▁bor	-16531
▁bou	-16532
▁bpd	-16533
▁bpe	-16534
▁bpg	-16535
▁bpi	-16536
▁bpl	-16537
▁bpn	-16538
▁bpo	-16539
▁bps	-16540
▁bpu	-16541
▁brd	-16542
▁brg	-16543
▁bri	-16544
▁brn	-16545
▁bro	-16546
▁brs	-16547
▁bru	-16548
▁bsd	-16549
▁bse	-16550
▁bsg	-16551
▁bsi	-16552
▁bsn	-16553
▁bso	-16554
▁bsp	-16555
▁bss	-16556
▁bsu	-16557
▁bta	-16558
▁btd	-16559
▁bte	-16560
▁btg	-16561
▁btl	-16562
▁btn	-16563
▁bto	-16564
▁bts	-16565
▁btu	-16566
▁buc	-16567
▁bud	-16568
▁bue	-16569
▁bul	-16570
▁bun	-16571
▁bup	-16572
▁but	-16573
▁fad	-16574
▁fag	-16575
▁fan	-16576
▁fao	-16577
▁fas	-16578
▁fau	-16579
▁fcd	-16580
▁fce	-16581
▁fcg	-16582
▁fci	-16583
▁fcl	-16584
▁fcn	-16585
▁fco	-16586
▁fcr	-16587
▁fcs	-16588
▁fdd	-16589
▁fdg	-16590
▁fdi	-16591
▁fdl	-16592
▁fdn	-16593
▁fdo	-16594
▁fdr	-16595
▁fds	-16596
▁fdu	-16597
▁fec	-16598
▁fed	-16599
▁feg	-16600
▁fel	-16601
▁fen	-16602
▁feo	-16603
▁feu	-16604
▁fgd	-16605
▁fge	-16606
▁fgg	-16607
▁fgi	-16608
▁fgl	-16609
▁fgn	-16610
▁fgo	-16611
▁fgs	-16612
▁fgu	-16613
▁fic	-16614
▁fid	-16615
▁fie	-16616
▁fig	-16617
▁fii	-16618
▁fio	-16619
▁fir	-16620
▁fis	-16621
▁fld	-16622
▁flg	-16623
▁fli	-16624
▁fln	-16625
▁fls	-16626
▁fma	-16627
▁fmd	-16628
▁fme	-16629
▁fmg	-16630
▁fmi	-16631
▁fml	-16632
▁fmn	-16633
▁fmo	-16634
▁fmp	-16635
▁fms	-16636
▁fmu	-16637
▁fnd	-16638
▁fne	-16639
▁fng	-16640
▁fni	-16641
▁fnl	-16642
▁fnn	-16643
▁fns	-16644
▁fnu	-16645
▁fol	-16646
▁fon	-16647
▁fos	-16648
▁fpd	-16649
▁fpe	-16650
▁fpg	-16651
▁fpi	-16652
▁fpl	-16653
▁fpn	-16654
▁fpo	-16655
▁fps	-16656
▁fpu	-16657
▁frd	-16658
▁frg	-16659
▁fri	-16660
▁frn	-16661
▁fro	-16662
▁frs	-16663
▁fru	-16664
▁fsd	-16665
▁fse	-16666
▁fsg	-16667
▁fsi	-16668
▁fsn	-16669
▁fso	-16670
▁fsp	-16671
▁fss	-16672
▁fsu	-16673
▁fta	-16674
▁ftd	-16675
▁fte	-16676
▁ftg	-16677
▁ftl	-16678
▁ftn	-16679
▁fto	-16680
▁fts	-16681
▁ftu	-16682
▁fuc	-16683
▁fug	-16684
▁ful	-16685
▁fup	-16686
▁fus	-16687
▁fut	-16688
▁hac	-16689
▁had	-16690
▁hal	-16691
▁han	-16692
▁hau	-16693
▁hcd	-16694
▁hce	-16695
▁hcg	-16696
▁hci	-16697
▁hcl	-16698
▁hcn	-16699
▁hco	-16700
▁hcr	-16701
▁hcs	-16702
▁hdd	-16703
▁hdg	-16704
▁hdi	-16705
▁hdl	-16706
▁hdn	-16707
▁hdo	-16708
▁hdr	-16709
▁hds	-16710
▁hdu	-16711
▁hec	-16712
▁hed	-16713
▁heg	-16714
▁hel	-16715
▁hen	-16716
▁hes	-16717
▁hgd	-16718
▁hge	-16719
▁hgg	-16720
▁hgi	-16721
▁hgl	-16722
▁hgn	-16723
▁hgo	-16724
▁hgs	-16725
▁hgu	-16726
▁hic	-16727
▁hid	-16728
▁hie	-16729
▁hig	-16730
▁hii	-16731
▁hil	-16732
▁hio	-16733
▁hir	-16734
▁his	-16735
▁hiu	-16736
▁hld	-16737
▁hlg	-16738
▁hli	-16739
▁hln	-16740
▁hls	-16741
▁hlu	-16742
▁hma	-16743
▁hmd	-16744
▁hme	-16745
▁hmg	-16746
▁hmi	-16747
▁hml	-16748
▁hmn	-16749
▁hmo	-16750
▁hmp	-16751
▁hms	-16752
▁hmu	-16753
▁hnd	-16754
▁hne	-16755
▁hng	-16756
▁hni	-16757
▁hnl	-16758
▁hnn	-16759
▁hns	-16760
▁hnu	-16761
▁hog	-16762
▁hol	-16763
▁hon	-16764
▁hoo	-16765
▁hor	-16766
▁hos	-16767
▁hpd	-16768
▁hpe	-16769
▁hpg	-16770
▁hpi	-16771
▁hpl	-16772
▁hpn	-16773
▁hpo	-16774
▁hps	-16775
▁hpu	-16776
▁hrd	-16777
▁hre	-16778
▁hrg	-16779
▁hri	-16780
▁hrn	-16781
▁hro	-16782
▁hrs	-16783
▁hru	-16784
▁hsd	-16785
▁hse	-16786
▁hsg	-16787
▁hsi	-16788
▁hsn	-16789
▁hso	-16790
▁hsp	-16791
▁hss	-16792
▁hsu	-16793
▁hta	-16794
▁htd	-16795
▁hte	-16796
▁htg	-16797
▁htl	-16798
▁htn	-16799
▁hto	-16800
▁hts	-16801
▁htu	-16802
▁huc	-16803
▁hue	-16804
▁hug	-16805
▁hul	-16806
▁hun	-16807
▁hup	-16808
▁hus	-16809
▁hut	-16810
▁vad	-16811
▁vag	-16812
▁van	-16813
▁vao	-16814
▁vas	-16815
▁vau	-16816
▁vcd	-16817
▁vce	-16818
▁vcg	-16819
▁vci	-16820
▁vcl	-16821
▁vcn	-16822
▁vco	-16823
▁vcr	-16824
▁vcs	-16825
▁vdd	-16826
▁vdg	-16827
▁vdi	-16828
▁vdl	-16829
▁vdn	-16830
▁vdo	-16831
▁vdr	-16832
▁vds	-16833
▁vdu	-16834
▁vec	-16835
▁ved	-16836
▁veg	-16837
▁vel	-16838
▁ves	-16839
▁vgd	-16840
▁vge	-16841
▁vgg	-16842
▁vgi	-16843
▁vgl	-16844
▁vgn	-16845
▁vgo	-16846
▁vgs	-16847
▁vgu	-16848
▁vic	-16849
▁vig	-16850
▁vil	-16851
▁vir	-16852
▁vld	-16853
▁vlg	-16854
▁vli	-16855
▁vln	-16856
▁vls	-16857
▁vlu	-16858
▁vma	-16859
▁vmd	-16860
▁vme	-16861
▁vmg	-16862
▁vmi	-16863
▁vml	-16864
▁vmn	-16865
▁vmo	-16866
▁vmp	-16867
▁vms	-16868
▁vmu	-16869
▁vnd	-16870
▁vne	-16871
▁vng	-16872
▁vni	-16873
▁vnl	-16874
▁vnn	-16875
▁vns	-16876
▁vnu	-16877
▁vog	-16878
▁vol	-16879
▁von	-16880
▁voo	-16881
▁vor	-16882
▁vos	-16883
▁vpd	-16884
▁vpe	-16885
▁vpg	-16886
▁vpi	-16887
▁vpl	-16888
▁vpn	-16889
▁vpo	-16890
▁vps	-16891
▁vpu	-16892
▁vrd	-16893
▁vre	-16894
▁vrg	-16895
▁vri	-16896
▁vrn	-16897
▁vro	-16898
▁vrs	-16899
▁vru	-16900
▁vse	-16901
▁vsi	-16902
▁vsp	-16903
▁vta	-16904
▁vtd	-16905
▁vte	-16906
▁vtg	-16907
▁vtl	-16908
▁vtn	-16909
▁vto	-16910
▁vts	-16911
▁vtu	-16912
▁vuc	-16913
▁vud	-16914
▁vue	-16915
▁vug	-16916
▁vui	-16917
▁vul	-16918
▁vun	-16919
▁vuo	-16920
▁vup	-16921
▁vus	-16922
▁vut	-16923
▁vuu	-16924
▁yac	-16925
▁yad	-16926
▁yag	-16927
▁yal	-16928
▁yan	-16929
▁yao	-16930
▁yas	-16931
▁yau	-16932
▁ycd	-16933
▁yce	-16934
▁ycg	-16935
▁yci	-16936
▁ycl	-16937
▁ycn	-16938
▁yco	-16939
▁ycr	-16940
▁ycs	-16941
▁ydd	-16942
▁ydg	-16943
▁ydi	-16944
▁ydl	-16945
▁ydn	-16946
▁ydo	-16947
▁ydr	-16948
▁yds	-16949
▁ydu	-16950
▁yec	-16951
▁yed	-16952
▁yeg	-16953
▁yel	-16954
▁yen	-16955
▁yeo	-16956
▁yes	-16957
▁yeu	-16958
▁ygd	-16959
▁yge	-16960
▁ygg	-16961
▁ygi	-16962
▁ygl	-16963
▁ygn	-16964
▁ygo	-16965
▁ygs	-16966
▁ygu	-16967
▁yic	-16968
▁yid	-16969
▁yie	-16970
▁yig	-16971
▁yii	-16972
▁yil	-16973
▁yio	-16974
▁yir	-16975
▁yis	-16976
▁yiu	-16977
▁yld	-16978
▁ylg	-16979
▁yli	-16980
▁yln	-16981
▁yls	-16982
▁ylu	-16983
▁yma	-16984
▁ymd	-16985
▁yme	-16986
▁ymg	-16987
▁ymi	-16988
▁yml	-16989
▁ymn	-16990
▁ymo	-16991
▁ymp	-16992
▁yms	-16993
▁ymu	-16994
▁ynd	-16995
▁yne	-16996
▁yng	-16997
▁yni	-16998
▁ynl	-16999
▁ynn	-17000
▁yns	-17001
▁ynu	-17002
▁yog	-17003
▁yol	-17004
▁yon	-17005
▁yoo	-17006
▁yor	-17007
▁yos	-17008
▁you	-17009
▁ypd	-17010
▁ype	-17011
▁ypg	-17012
▁ypi	-17013
▁ypl	-17014
▁ypn	-17015
▁ypo	-17016
▁yps	-17017
▁ypu	-17018
▁yrd	-17019
▁yre	-17020
▁yrg	-17021
▁yri	-17022
▁yrn	-17023
▁yro	-17024
▁yrs	-17025
▁yru	-17026
▁ysd	-17027
▁yse	-17028
▁ysg	-17029
▁ysi	-17030
▁ysn	-17031
▁yso	-17032
▁ysp	-17033
▁yss	-17034
▁ysu	-17035
▁yta	-17036
▁ytd	-17037
▁yte	-17038
▁ytg	-17039
▁ytl	-17040
▁ytn	-17041
▁yto	-17042
▁yts	-17043
▁ytu	-17044
▁yuc	-17045
▁yud	-17046
▁yue	-17047
▁yug	-17048
▁yui	-17049
▁yul	-17050
▁yun	-17051
▁yuo	-17052
▁yup	-17053
▁yus	-17054
▁yut	-17055
▁yuu	-17056
▁áac	-17057
▁áad	-17058
▁áag	-17059
▁áal	-17060
▁áan	-17061
▁áao	-17062
▁áas	-17063
▁áau	-17064
▁ácd	-17065
▁áce	-17066
▁ácg	-17067
▁áci	-17068
▁ácl	-17069
▁ácn	-17070
▁áco	-17071
▁ácr	-17072
▁ács	-17073
▁ádd	-17074
▁ádg	-17075
▁ádi	-17076
▁ádl	-17077
▁ádn	-17078
▁ádo	-17079
▁ádr	-17080
▁áds	-17081
▁ádu	-17082
▁áec	-17083
▁áed	-17084
▁áeg	-17085
▁áel	-17086
▁áen	-17087
▁áeo	-17088
▁áes	-17089
▁áeu	-17090
▁ágd	-17091
▁áge	-17092
▁ágg	-17093
▁ági	-17094
▁ágl	-17095
▁ágn	-17096
▁ágo	-17097
▁ágs	-17098
▁águ	-17099
▁áic	-17100
▁áid	-17101
▁áie	-17102
▁áig	-17103
▁áii	-17104
▁áil	-17105
▁áio	-17106
▁áir	-17107
▁áis	-17108
▁áiu	-17109
▁áli	-17110
▁álu	-17111
▁áma	-17112
▁ámd	-17113
▁áme	-17114
▁ámg	-17115
▁ámi	-17116
▁áml	-17117
▁ámn	-17118
▁ámo	-17119
▁ámp	-17120
▁áms	-17121
▁ámu	-17122
▁ánd	-17123
▁áne	-17124
▁áng	-17125
▁áni	-17126
▁ánl	-17127
▁ánn	-17128
▁áns	-17129
▁ánu	-17130
▁áog	-17131
▁áol	-17132
▁áon	-17133
▁áoo	-17134
▁áor	-17135
▁áos	-17136
▁áou	-17137
▁ápd	-17138
▁ápe	-17139
▁ápg	-17140
▁ápi	-17141
▁ápl	-17142
▁ápn	-17143
▁ápo	-17144
▁áps	-17145
▁ápu	-17146
▁árd	-17147
▁áre	-17148
▁árg	-17149
▁ári	-17150
▁árn	-17151
▁áro	-17152
▁árs	-17153
▁áru	-17154
▁áse	-17155
▁ási	-17156
▁ásp	-17157
▁áta	-17158
▁átd	-17159
▁áte	-17160
▁átg	-17161
▁átl	-17162
▁átn	-17163
▁áto	-17164
▁áts	-17165
▁átu	-17166
▁áuc	-17167
▁áud	-17168
▁áue	-17169
▁áug	-17170
▁áui	-17171
▁ául	-17172
▁áun	-17173
▁áuo	-17174
▁áup	-17175
▁áus	-17176
▁áut	-17177
▁áuu	-17178
▁éac	-17179
▁éad	-17180
▁éag	-17181
▁éal	-17182
▁éan	-17183
▁éao	-17184
▁éas	-17185
▁éau	-17186
▁écd	-17187
▁éce	-17188
▁écg	-17189
▁éci	-17190
▁écl	-17191
▁écn	-17192
▁éco	-17193
▁écr	-17194
▁écs	-17195
▁édd	-17196
▁édg	-17197
▁édi	-17198
▁édl	-17199
▁édn	-17200
▁édo	-17201
▁édr	-17202
▁éds	-17203
▁édu	-17204
▁éec	-17205
▁éed	-17206
▁éeg	-17207
▁éel	-17208
▁éen	-17209
▁éeo	-17210
▁ées	-17211
▁éeu	-17212
▁égd	-17213
▁ége	-17214
▁égg	-17215
▁égi	-17216
▁égl	-17217
▁égn	-17218
▁égo	-17219
▁égs	-17220
▁égu	-17221
▁éic	-17222
▁éid	-17223
▁éie	-17224
▁éig	-17225
▁éii	-17226
▁éil	-17227
▁éio	-17228
▁éir	-17229
▁éis	-17230
▁éiu	-17231
▁éld	-17232
▁élg	-17233
▁éli	-17234
▁éln	-17235
▁éls	-17236
▁élu	-17237
▁éma	-17238
▁émd	-17239
▁éme	-17240
▁émg	-17241
▁émi	-17242
▁éml	-17243
▁émn	-17244
▁émo	-17245
▁émp	-17246
▁éms	-17247
▁ému	-17248
▁énd	-17249
▁éne	-17250
▁éng	-17251
▁éni	-17252
▁énl	-17253
▁énn	-17254
▁éns	-17255
▁énu	-17256
▁éog	-17257
▁éol	-17258
▁éon	-17259
▁éoo	-17260
▁éor	-17261
▁éos	-17262
▁éou	-17263
▁épd	-17264
▁épe	-17265
▁épg	-17266
▁épi	-17267
▁épl	-17268
▁épn	-17269
▁épo	-17270
▁éps	-17271
▁épu	-17272
▁érd	-17273
▁ére	-17274
▁érg	-17275
▁éri	-17276
▁érn	-17277
▁éro	-17278
▁érs	-17279
▁éru	-17280
▁ésd	-17281
▁ése	-17282
▁ésg	-17283
▁ési	-17284
▁ésn	-17285
▁éso	-17286
▁ésp	-17287
▁éss	-17288
▁ésu	-17289
▁éta	-17290
▁étd	-17291
▁éte	-17292
▁étg	-17293
▁étl	-17294
▁étn	-17295
▁éto	-17296
▁éts	-17297
▁étu	-17298
▁éuc	-17299
▁éud	-17300
▁éue	-17301
▁éug	-17302
▁éui	-17303
▁éul	-17304
▁éun	-17305
▁éuo	-17306
▁éup	-17307
▁éus	-17308
▁éut	-17309
▁éuu	-17310
▁íac	-17311
▁íad	-17312
▁íal	-17313
▁ían	-17314
▁ías	-17315
▁ícd	-17316
▁íce	-17317
▁ícg	-17318
▁íci	-17319
▁ícl	-17320
▁ícn	-17321
▁íco	-17322
▁ícr	-17323
▁ícs	-17324
▁ídd	-17325
▁ídg	-17326
▁ídi	-17327
▁ídl	-17328
▁ídn	-17329
▁ído	-17330
▁ídr	-17331
▁íds	-17332
▁ídu	-17333
▁íec	-17334
▁íed	-17335
▁íeg	-17336
▁íel	-17337
▁íen	-17338
▁íeo	-17339
▁íes	-17340
▁íeu	-17341
▁ígd	-17342
▁íge	-17343
▁ígg	-17344
▁ígi	-17345
▁ígl	-17346
▁ígn	-17347
▁ígo	-17348
▁ígs	-17349
▁ígu	-17350
▁íic	-17351
▁íid	-17352
▁íie	-17353
▁íig	-17354
▁íii	-17355
▁íil	-17356
▁íio	-17357
▁íir	-17358
▁íis	-17359
▁íiu	-17360
▁íld	-17361
▁ílg	-17362
▁íli	-17363
▁íln	-17364
▁íls	-17365
▁ílu	-17366
▁íma	-17367
▁ímd	-17368
▁íme	-17369
▁ímg	-17370
▁ími	-17371
▁íml	-17372
▁ímn	-17373
▁ímo	-17374
▁ímp	-17375
▁íms	-17376
▁ímu	-17377
▁íne	-17378
▁íng	-17379
▁íni	-17380
▁ínl	-17381
▁ínn	-17382
▁íns	-17383
▁ínu	-17384
▁íog	-17385
▁íol	-17386
▁íon	-17387
▁íoo	-17388
▁íor	-17389
▁íos	-17390
▁íou	-17391
▁ípd	-17392
▁ípe	-17393
▁ípg	-17394
▁ípi	-17395
▁ípl	-17396
▁ípn	-17397
▁ípo	-17398
▁íps	-17399
▁ípu	-17400
▁írd	-17401
▁íre	-17402
▁írg	-17403
▁íri	-17404
▁írn	-17405
▁íro	-17406
▁írs	-17407
▁íru	-17408
▁ísd	-17409
▁íse	-17410
▁ísg	-17411
▁ísi	-17412
▁ísn	-17413
▁íso	-17414
▁ísp	-17415
▁íss	-17416
▁ísu	-17417
▁íta	-17418
▁ítd	-17419
▁íte	-17420
▁ítg	-17421
▁ítl	-17422
▁ítn	-17423
▁íto	-17424
▁íts	-17425
▁ítu	-17426
▁íuc	-17427
▁íud	-17428
▁íue	-17429
▁íug	-17430
▁íui	-17431
▁íul	-17432
▁íun	-17433
▁íuo	-17434
▁íup	-17435
▁íus	-17436
▁íut	-17437
▁íuu	-17438
▁óac	-17439
▁óad	-17440
▁óag	-17441
▁óal	-17442
▁óan	-17443
▁óao	-17444
▁óas	-17445
▁óau	-17446
▁ócd	-17447
▁óce	-17448
▁ócg	-17449
▁óci	-17450
▁ócl	-17451
▁ócn	-17452
▁óco	-17453
▁ócr	-17454
▁ócs	-17455
▁ódi	-17456
▁ódo	-17457
▁óec	-17458
▁óed	-17459
▁óeg	-17460
▁óel	-17461
▁óen	-17462
▁óeo	-17463
▁óes	-17464
▁óeu	-17465
▁ógd	-17466
▁óge	-17467
▁ógg	-17468
▁ógi	-17469
▁ógl	-17470
▁ógn	-17471
▁ógo	-17472
▁ógs	-17473
▁ógu	-17474
▁óic	-17475
▁óid	-17476
▁óie	-17477
▁óig	-17478
▁óii	-17479
▁óil	-17480
▁óio	-17481
▁óir	-17482
▁óis	-17483
▁óiu	-17484
▁óld	-17485
▁ólg	-17486
▁óli	-17487
▁óln	-17488
▁óls	-17489
▁ólu	-17490
▁óma	-17491
▁ómd	-17492
▁óme	-17493
▁ómg	-17494
▁ómi	-17495
▁óml	-17496
▁ómn	-17497
▁ómp	-17498
▁óms	-17499
▁ómu	-17500
▁óog	-17501
▁óol	-17502
▁óon	-17503
▁óoo	-17504
▁óor	-17505
▁óos	-17506
▁óou	-17507
▁ópd	-17508
▁ópe	-17509
▁ópg	-17510
▁ópi	-17511
▁ópl	-17512
▁ópn	-17513
▁ópo	-17514
▁óps	-17515
▁ópu	-17516
▁órd	-17517
▁óre	-17518
▁órg	-17519
▁óri	-17520
▁órn	-17521
▁óro	-17522
▁órs	-17523
▁óru	-17524
▁ósd	-17525
▁óse	-17526
▁ósg	-17527
▁ósi	-17528
▁ósn	-17529
▁óso	-17530
▁ósp	-17531
▁óss	-17532
▁ósu	-17533
▁óta	-17534
▁ótd	-17535
▁óte	-17536
▁ótg	-17537
▁ótl	-17538
▁ótn	-17539
▁óto	-17540
▁óts	-17541
▁ótu	-17542
▁óuc	-17543
▁óud	-17544
▁óue	-17545
▁óug	-17546
▁óui	-17547
▁óul	-17548
▁óun	-17549
▁óuo	-17550
▁óup	-17551
▁óus	-17552
▁óut	-17553
▁óuu	-17554
▁úac	-17555
▁úad	-17556
▁úag	-17557
▁úal	-17558
▁úan	-17559
▁úao	-17560
▁úas	-17561
▁úau	-17562
▁úcd	-17563
▁úce	-17564
▁úcg	-17565
▁úci	-17566
▁úcl	-17567
▁úcn	-17568
▁úco	-17569
▁úcr	-17570
▁úcs	-17571
▁údd	-17572
▁údg	-17573
▁údi	-17574
▁údl	-17575
▁údn	-17576
▁údo	-17577
▁údr	-17578
▁úds	-17579
▁údu	-17580
▁úec	-17581
▁úed	-17582
▁úeg	-17583
▁úel	-17584
▁úen	-17585
▁úeo	-17586
▁úes	-17587
▁úeu	-17588
▁úgd	-17589
▁úge	-17590
▁úgg	-17591
▁úgi	-17592
▁úgl	-17593
▁úgn	-17594
▁úgo	-17595
▁úgs	-17596
▁úgu	-17597
▁úic	-17598
▁úid	-17599
▁úie	-17600
▁úig	-17601
▁úii	-17602
▁úil	-17603
▁úio	-17604
▁úir	-17605
▁úis	-17606
▁úiu	-17607
▁úld	-17608
▁úlg	-17609
▁úli	-17610
▁úln	-17611
▁úls	-17612
▁úlu	-17613
▁úma	-17614
▁úmd	-17615
▁úme	-17616
▁úmg	-17617
▁úmi	-17618
▁úml	-17619
▁úmn	-17620
▁úmo	-17621
▁úmp	-17622
▁úms	-17623
▁úmu	-17624
▁únd	-17625
▁úne	-17626
▁úni	-17627
▁úns	-17628
▁úog	-17629
▁úol	-17630
▁úon	-17631
▁úoo	-17632
▁úor	-17633
▁úos	-17634
▁úou	-17635
▁úpd	-17636
▁úpe	-17637
▁úpg	-17638
▁úpi	-17639
▁úpl	-17640
▁úpn	-17641
▁úpo	-17642
[...]
